#include <cstdint>

#include "xxs_impsy_model.h"

alignas(16) const unsigned char models_musicMDRNN_dim4_layers2_units16_mixtures5_scale10_tflite[] = {
  0x20, 0x00, 0x00, 0x00, 0x54, 0x46, 0x4c, 0x33, 0x00, 0x00, 0x00, 0x00,
  0x14, 0x00, 0x20, 0x00, 0x1c, 0x00, 0x18, 0x00, 0x14, 0x00, 0x10, 0x00,
  0x0c, 0x00, 0x00, 0x00, 0x08, 0x00, 0x04, 0x00, 0x14, 0x00, 0x00, 0x00,
  0x1c, 0x00, 0x00, 0x00, 0x7c, 0x01, 0x00, 0x00, 0xcc, 0x01, 0x00, 0x00,
  0x54, 0x27, 0x00, 0x00, 0x64, 0x27, 0x00, 0x00, 0xbc, 0x65, 0x00, 0x00,
  0x03, 0x00, 0x00, 0x00, 0x01, 0x00, 0x00, 0x00, 0x04, 0x00, 0x00, 0x00,
  0xbe, 0xb4, 0xff, 0xff, 0x0c, 0x00, 0x00, 0x00, 0x1c, 0x00, 0x00, 0x00,
  0xb4, 0x00, 0x00, 0x00, 0x0f, 0x00, 0x00, 0x00, 0x73, 0x65, 0x72, 0x76,
  0x69, 0x6e, 0x67, 0x5f, 0x64, 0x65, 0x66, 0x61, 0x75, 0x6c, 0x74, 0x00,
  0x05, 0x00, 0x00, 0x00, 0x80, 0x00, 0x00, 0x00, 0x60, 0x00, 0x00, 0x00,
  0x44, 0x00, 0x00, 0x00, 0x24, 0x00, 0x00, 0x00, 0x04, 0x00, 0x00, 0x00,
  0xb8, 0xb1, 0xff, 0xff, 0x30, 0x00, 0x00, 0x00, 0x04, 0x00, 0x00, 0x00,
  0x0b, 0x00, 0x00, 0x00, 0x6d, 0x64, 0x6e, 0x5f, 0x6f, 0x75, 0x74, 0x70,
  0x75, 0x74, 0x73, 0x00, 0xd4, 0xb1, 0xff, 0xff, 0x26, 0x00, 0x00, 0x00,
  0x04, 0x00, 0x00, 0x00, 0x08, 0x00, 0x00, 0x00, 0x6c, 0x73, 0x74, 0x6d,
  0x5f, 0x31, 0x5f, 0x31, 0x00, 0x00, 0x00, 0x00, 0xf0, 0xb1, 0xff, 0xff,
  0x25, 0x00, 0x00, 0x00, 0x04, 0x00, 0x00, 0x00, 0x06, 0x00, 0x00, 0x00,
  0x6c, 0x73, 0x74, 0x6d, 0x5f, 0x31, 0x00, 0x00, 0x08, 0xb2, 0xff, 0xff,
  0x1d, 0x00, 0x00, 0x00, 0x04, 0x00, 0x00, 0x00, 0x08, 0x00, 0x00, 0x00,
  0x6c, 0x73, 0x74, 0x6d, 0x5f, 0x30, 0x5f, 0x31, 0x00, 0x00, 0x00, 0x00,
  0x24, 0xb2, 0xff, 0xff, 0x1c, 0x00, 0x00, 0x00, 0x04, 0x00, 0x00, 0x00,
  0x06, 0x00, 0x00, 0x00, 0x6c, 0x73, 0x74, 0x6d, 0x5f, 0x30, 0x00, 0x00,
  0x05, 0x00, 0x00, 0x00, 0x80, 0x00, 0x00, 0x00, 0x60, 0x00, 0x00, 0x00,
  0x40, 0x00, 0x00, 0x00, 0x20, 0x00, 0x00, 0x00, 0x04, 0x00, 0x00, 0x00,
  0xee, 0xb5, 0xff, 0xff, 0x04, 0x00, 0x00, 0x00, 0x09, 0x00, 0x00, 0x00,
  0x73, 0x74, 0x61, 0x74, 0x65, 0x5f, 0x68, 0x5f, 0x31, 0x00, 0x00, 0x00,
  0x6c, 0xb2, 0xff, 0xff, 0x04, 0x00, 0x00, 0x00, 0x04, 0x00, 0x00, 0x00,
  0x09, 0x00, 0x00, 0x00, 0x73, 0x74, 0x61, 0x74, 0x65, 0x5f, 0x68, 0x5f,
  0x30, 0x00, 0x00, 0x00, 0x88, 0xb2, 0xff, 0xff, 0x01, 0x00, 0x00, 0x00,
  0x04, 0x00, 0x00, 0x00, 0x09, 0x00, 0x00, 0x00, 0x73, 0x74, 0x61, 0x74,
  0x65, 0x5f, 0x63, 0x5f, 0x31, 0x00, 0x00, 0x00, 0xa4, 0xb2, 0xff, 0xff,
  0x03, 0x00, 0x00, 0x00, 0x04, 0x00, 0x00, 0x00, 0x09, 0x00, 0x00, 0x00,
  0x73, 0x74, 0x61, 0x74, 0x65, 0x5f, 0x63, 0x5f, 0x30, 0x00, 0x00, 0x00,
  0xc0, 0xb2, 0xff, 0xff, 0x02, 0x00, 0x00, 0x00, 0x04, 0x00, 0x00, 0x00,
  0x06, 0x00, 0x00, 0x00, 0x69, 0x6e, 0x70, 0x75, 0x74, 0x73, 0x00, 0x00,
  0x02, 0x00, 0x00, 0x00, 0x2c, 0x00, 0x00, 0x00, 0x04, 0x00, 0x00, 0x00,
  0xe4, 0xb2, 0xff, 0xff, 0x83, 0x00, 0x00, 0x00, 0x04, 0x00, 0x00, 0x00,
  0x13, 0x00, 0x00, 0x00, 0x43, 0x4f, 0x4e, 0x56, 0x45, 0x52, 0x53, 0x49,
  0x4f, 0x4e, 0x5f, 0x4d, 0x45, 0x54, 0x41, 0x44, 0x41, 0x54, 0x41, 0x00,
  0x08, 0xb3, 0xff, 0xff, 0x82, 0x00, 0x00, 0x00, 0x04, 0x00, 0x00, 0x00,
  0x13, 0x00, 0x00, 0x00, 0x6d, 0x69, 0x6e, 0x5f, 0x72, 0x75, 0x6e, 0x74,
  0x69, 0x6d, 0x65, 0x5f, 0x76, 0x65, 0x72, 0x73, 0x69, 0x6f, 0x6e, 0x00,
  0x84, 0x00, 0x00, 0x00, 0x84, 0x25, 0x00, 0x00, 0x7c, 0x25, 0x00, 0x00,
  0x74, 0x25, 0x00, 0x00, 0x6c, 0x25, 0x00, 0x00, 0x64, 0x25, 0x00, 0x00,
  0x5c, 0x25, 0x00, 0x00, 0x48, 0x25, 0x00, 0x00, 0x2c, 0x25, 0x00, 0x00,
  0x10, 0x25, 0x00, 0x00, 0xf4, 0x24, 0x00, 0x00, 0xdc, 0x24, 0x00, 0x00,
  0xc8, 0x24, 0x00, 0x00, 0xb4, 0x24, 0x00, 0x00, 0xac, 0x24, 0x00, 0x00,
  0x90, 0x24, 0x00, 0x00, 0x30, 0x24, 0x00, 0x00, 0x0c, 0x24, 0x00, 0x00,
  0xac, 0x23, 0x00, 0x00, 0x9c, 0x22, 0x00, 0x00, 0x8c, 0x21, 0x00, 0x00,
  0x84, 0x21, 0x00, 0x00, 0x74, 0x1c, 0x00, 0x00, 0x24, 0x1b, 0x00, 0x00,
  0x14, 0x16, 0x00, 0x00, 0x0c, 0x16, 0x00, 0x00, 0x04, 0x16, 0x00, 0x00,
  0xfc, 0x15, 0x00, 0x00, 0xf4, 0x15, 0x00, 0x00, 0xec, 0x15, 0x00, 0x00,
  0xe4, 0x15, 0x00, 0x00, 0xdc, 0x15, 0x00, 0x00, 0xd4, 0x15, 0x00, 0x00,
  0xcc, 0x15, 0x00, 0x00, 0xc4, 0x15, 0x00, 0x00, 0xbc, 0x15, 0x00, 0x00,
  0xb4, 0x15, 0x00, 0x00, 0xac, 0x15, 0x00, 0x00, 0xa4, 0x15, 0x00, 0x00,
  0x9c, 0x15, 0x00, 0x00, 0x94, 0x15, 0x00, 0x00, 0x8c, 0x15, 0x00, 0x00,
  0x84, 0x15, 0x00, 0x00, 0x7c, 0x15, 0x00, 0x00, 0x74, 0x15, 0x00, 0x00,
  0x6c, 0x15, 0x00, 0x00, 0x64, 0x15, 0x00, 0x00, 0x5c, 0x15, 0x00, 0x00,
  0x54, 0x15, 0x00, 0x00, 0x4c, 0x15, 0x00, 0x00, 0x44, 0x15, 0x00, 0x00,
  0x3c, 0x15, 0x00, 0x00, 0x34, 0x15, 0x00, 0x00, 0x2c, 0x15, 0x00, 0x00,
  0x24, 0x15, 0x00, 0x00, 0x1c, 0x15, 0x00, 0x00, 0x14, 0x15, 0x00, 0x00,
  0x0c, 0x15, 0x00, 0x00, 0x04, 0x15, 0x00, 0x00, 0xfc, 0x14, 0x00, 0x00,
  0xf4, 0x14, 0x00, 0x00, 0xec, 0x14, 0x00, 0x00, 0xe4, 0x14, 0x00, 0x00,
  0xdc, 0x14, 0x00, 0x00, 0xd4, 0x14, 0x00, 0x00, 0xc4, 0x13, 0x00, 0x00,
  0xbc, 0x13, 0x00, 0x00, 0xac, 0x0f, 0x00, 0x00, 0x9c, 0x0b, 0x00, 0x00,
  0x94, 0x0b, 0x00, 0x00, 0x8c, 0x0b, 0x00, 0x00, 0x84, 0x0b, 0x00, 0x00,
  0x7c, 0x0b, 0x00, 0x00, 0x74, 0x0b, 0x00, 0x00, 0x6c, 0x0b, 0x00, 0x00,
  0x64, 0x0b, 0x00, 0x00, 0x5c, 0x0b, 0x00, 0x00, 0x54, 0x0b, 0x00, 0x00,
  0x4c, 0x0b, 0x00, 0x00, 0x44, 0x0b, 0x00, 0x00, 0x3c, 0x0b, 0x00, 0x00,
  0x34, 0x0b, 0x00, 0x00, 0x2c, 0x0b, 0x00, 0x00, 0x24, 0x0b, 0x00, 0x00,
  0x1c, 0x0b, 0x00, 0x00, 0x14, 0x0b, 0x00, 0x00, 0x0c, 0x0b, 0x00, 0x00,
  0x04, 0x0b, 0x00, 0x00, 0xfc, 0x0a, 0x00, 0x00, 0xf4, 0x0a, 0x00, 0x00,
  0xec, 0x0a, 0x00, 0x00, 0xe4, 0x0a, 0x00, 0x00, 0xdc, 0x0a, 0x00, 0x00,
  0xd4, 0x0a, 0x00, 0x00, 0xcc, 0x0a, 0x00, 0x00, 0xc4, 0x0a, 0x00, 0x00,
  0xbc, 0x0a, 0x00, 0x00, 0xb4, 0x0a, 0x00, 0x00, 0xac, 0x0a, 0x00, 0x00,
  0xa4, 0x0a, 0x00, 0x00, 0x9c, 0x0a, 0x00, 0x00, 0x94, 0x0a, 0x00, 0x00,
  0x8c, 0x0a, 0x00, 0x00, 0x84, 0x0a, 0x00, 0x00, 0x7c, 0x0a, 0x00, 0x00,
  0x74, 0x0a, 0x00, 0x00, 0x64, 0x09, 0x00, 0x00, 0x5c, 0x09, 0x00, 0x00,
  0x4c, 0x05, 0x00, 0x00, 0x3c, 0x01, 0x00, 0x00, 0x34, 0x01, 0x00, 0x00,
  0x2c, 0x01, 0x00, 0x00, 0x24, 0x01, 0x00, 0x00, 0x1c, 0x01, 0x00, 0x00,
  0x14, 0x01, 0x00, 0x00, 0x0c, 0x01, 0x00, 0x00, 0x04, 0x01, 0x00, 0x00,
  0xfc, 0x00, 0x00, 0x00, 0xf4, 0x00, 0x00, 0x00, 0xec, 0x00, 0x00, 0x00,
  0xe4, 0x00, 0x00, 0x00, 0xdc, 0x00, 0x00, 0x00, 0xd4, 0x00, 0x00, 0x00,
  0xcc, 0x00, 0x00, 0x00, 0xc4, 0x00, 0x00, 0x00, 0xbc, 0x00, 0x00, 0x00,
  0xb4, 0x00, 0x00, 0x00, 0xac, 0x00, 0x00, 0x00, 0xa4, 0x00, 0x00, 0x00,
  0x9c, 0x00, 0x00, 0x00, 0x94, 0x00, 0x00, 0x00, 0x74, 0x00, 0x00, 0x00,
  0x04, 0x00, 0x00, 0x00, 0xda, 0xb8, 0xff, 0xff, 0x04, 0x00, 0x00, 0x00,
  0x60, 0x00, 0x00, 0x00, 0x0c, 0x00, 0x00, 0x00, 0x08, 0x00, 0x0e, 0x00,
  0x08, 0x00, 0x04, 0x00, 0x08, 0x00, 0x00, 0x00, 0x14, 0x00, 0x00, 0x00,
  0x30, 0x00, 0x00, 0x00, 0x00, 0x00, 0x0a, 0x00, 0x0c, 0x00, 0x08, 0x00,
  0x00, 0x00, 0x07, 0x00, 0x0a, 0x00, 0x00, 0x00, 0x00, 0x00, 0x00, 0x01,
  0x04, 0x00, 0x00, 0x00, 0x01, 0x00, 0x00, 0x00, 0xea, 0x03, 0x00, 0x00,
  0x00, 0x00, 0x0a, 0x00, 0x10, 0x00, 0x0c, 0x00, 0x08, 0x00, 0x04, 0x00,
  0x0a, 0x00, 0x00, 0x00, 0x02, 0x00, 0x00, 0x00, 0x02, 0x00, 0x00, 0x00,
  0x04, 0x00, 0x00, 0x00, 0x06, 0x00, 0x00, 0x00, 0x32, 0x2e, 0x31, 0x35,
  0x2e, 0x30, 0x00, 0x00, 0x46, 0xb9, 0xff, 0xff, 0x04, 0x00, 0x00, 0x00,
  0x10, 0x00, 0x00, 0x00, 0x32, 0x2e, 0x33, 0x2e, 0x30, 0x00, 0x00, 0x00,
  0x00, 0x00, 0x00, 0x00, 0x00, 0x00, 0x00, 0x00, 0xd8, 0x9d, 0xff, 0xff,
  0xdc, 0x9d, 0xff, 0xff, 0xe0, 0x9d, 0xff, 0xff, 0xe4, 0x9d, 0xff, 0xff,
  0xe8, 0x9d, 0xff, 0xff, 0xec, 0x9d, 0xff, 0xff, 0xf0, 0x9d, 0xff, 0xff,
  0xf4, 0x9d, 0xff, 0xff, 0xf8, 0x9d, 0xff, 0xff, 0xfc, 0x9d, 0xff, 0xff,
  0x00, 0x9e, 0xff, 0xff, 0x04, 0x9e, 0xff, 0xff, 0x08, 0x9e, 0xff, 0xff,
  0x0c, 0x9e, 0xff, 0xff, 0x10, 0x9e, 0xff, 0xff, 0x14, 0x9e, 0xff, 0xff,
  0x18, 0x9e, 0xff, 0xff, 0x1c, 0x9e, 0xff, 0xff, 0x20, 0x9e, 0xff, 0xff,
  0x24, 0x9e, 0xff, 0xff, 0x28, 0x9e, 0xff, 0xff, 0xb6, 0xb9, 0xff, 0xff,
  0x04, 0x00, 0x00, 0x00, 0x00, 0x04, 0x00, 0x00, 0xf4, 0x21, 0xe9, 0xe9,
  0x40, 0xd9, 0xff, 0x21, 0x09, 0x23, 0xf2, 0x01, 0xf5, 0xec, 0xed, 0x0f,
  0x16, 0x4d, 0xe4, 0xe8, 0x22, 0xf0, 0xf7, 0xf1, 0xf5, 0x1d, 0x16, 0xf6,
  0x0f, 0x00, 0xd5, 0x07, 0xfb, 0x3e, 0x06, 0x06, 0x50, 0xf4, 0x16, 0xf2,
  0xf3, 0x1d, 0x1a, 0x06, 0x14, 0xff, 0xc8, 0x16, 0x04, 0x0d, 0xff, 0xf0,
  0x40, 0xe1, 0xda, 0x02, 0x03, 0x21, 0x08, 0x15, 0x0f, 0xe4, 0xe4, 0x0a,
  0x06, 0x14, 0x0f, 0xf1, 0x35, 0xf5, 0xfa, 0x15, 0x0a, 0x1e, 0x0b, 0x14,
  0x1a, 0xe7, 0xe0, 0x0f, 0x13, 0x25, 0x09, 0xf8, 0x42, 0xed, 0xfa, 0x08,
  0x0c, 0x22, 0x08, 0x19, 0xf4, 0xfe, 0xe9, 0xf4, 0xfc, 0x28, 0x02, 0xed,
  0x36, 0x05, 0xff, 0x11, 0x0c, 0xff, 0x07, 0x1c, 0xf7, 0xf7, 0xed, 0x09,
  0x16, 0x1a, 0xe4, 0x01, 0x28, 0xe7, 0xcf, 0x21, 0x08, 0x0b, 0xfe, 0x0a,
  0xf7, 0xec, 0xdf, 0x22, 0x05, 0x27, 0xfc, 0xea, 0x2b, 0xf1, 0x21, 0xec,
  0x10, 0x16, 0x0d, 0x0c, 0x02, 0xf3, 0xd9, 0xff, 0x06, 0x32, 0x0e, 0xe5,
  0x20, 0xf1, 0xff, 0x00, 0xfb, 0x0b, 0x13, 0xfd, 0x0a, 0x0a, 0xd2, 0x00,
  0x2f, 0x3f, 0xe5, 0xff, 0x1c, 0xf2, 0x23, 0x07, 0xf8, 0x1a, 0x0c, 0x0a,
  0x07, 0xde, 0xb5, 0x28, 0xf3, 0x25, 0xe6, 0xe5, 0x47, 0xf6, 0xd8, 0x01,
  0x0e, 0xfe, 0x08, 0x10, 0x1b, 0x03, 0xe2, 0x0b, 0x00, 0x1e, 0x10, 0xe3,
  0x42, 0x04, 0xf1, 0x14, 0xea, 0x03, 0xf4, 0xf3, 0x05, 0xeb, 0xcc, 0x0e,
  0x1b, 0x0b, 0xf5, 0x05, 0x41, 0xfa, 0x19, 0xfa, 0x10, 0x0b, 0x10, 0x09,
  0x0b, 0xf5, 0xe9, 0x0a, 0xff, 0x31, 0x0e, 0x0c, 0x36, 0x08, 0x37, 0xfd,
  0x04, 0xfe, 0xf8, 0x05, 0xf6, 0xef, 0xe3, 0xff, 0xfe, 0x0b, 0xff, 0xff,
  0x47, 0x01, 0xe8, 0x1a, 0xf1, 0xf8, 0x12, 0x12, 0xf6, 0xfc, 0xd3, 0x19,
  0xee, 0x18, 0xf5, 0xe7, 0xec, 0xea, 0x15, 0xf6, 0xed, 0x10, 0x17, 0xfe,
  0x1a, 0x0f, 0x06, 0x18, 0xf5, 0x32, 0x05, 0xfe, 0x01, 0xf9, 0x18, 0x0e,
  0xe9, 0xf4, 0xf5, 0xfb, 0xed, 0xee, 0xed, 0xf6, 0x00, 0x0a, 0x07, 0x04,
  0x07, 0xf8, 0x02, 0xef, 0x0c, 0xf4, 0x1a, 0xf2, 0xf8, 0x0f, 0xe7, 0x0e,
  0x10, 0xf9, 0xf1, 0x12, 0x0a, 0xfc, 0xec, 0xfd, 0x03, 0x05, 0xf5, 0x0f,
  0xff, 0xfd, 0xfa, 0xf1, 0xe8, 0xed, 0xf9, 0xe8, 0x04, 0x04, 0xdd, 0xee,
  0x0c, 0x02, 0x11, 0x01, 0x08, 0x02, 0x0b, 0x07, 0x17, 0x0e, 0xf4, 0xf8,
  0x10, 0x12, 0xea, 0xf6, 0xe9, 0x16, 0x12, 0x03, 0xf5, 0x10, 0x0f, 0xf7,
  0xf9, 0x07, 0xe8, 0xf4, 0x02, 0xf9, 0xed, 0x06, 0x0c, 0x13, 0x14, 0x17,
  0xf4, 0x0c, 0xf7, 0x02, 0x1d, 0x06, 0x0d, 0xf6, 0x13, 0x0e, 0x0d, 0xf2,
  0xee, 0xfb, 0xf0, 0x0f, 0x0e, 0x00, 0xf0, 0xf0, 0x02, 0x17, 0xef, 0x1a,
  0x0b, 0xeb, 0x11, 0xf4, 0xf5, 0x0f, 0x06, 0x05, 0xf2, 0x01, 0xf6, 0xfa,
  0x05, 0x06, 0x07, 0x06, 0x04, 0x0a, 0xfe, 0x02, 0xfb, 0x09, 0x02, 0x0c,
  0x1a, 0xea, 0xec, 0x1b, 0xf1, 0x03, 0x0c, 0x14, 0x23, 0x0b, 0x09, 0x0e,
  0xf4, 0x02, 0x1b, 0x07, 0x01, 0x01, 0xe0, 0x0f, 0xfb, 0x14, 0x04, 0x06,
  0x04, 0xfc, 0xfc, 0x03, 0xf6, 0xfa, 0xf6, 0x03, 0x16, 0x07, 0xf9, 0xfa,
  0x0f, 0x02, 0xf9, 0xfa, 0xff, 0xed, 0xe4, 0xeb, 0x05, 0xf0, 0x06, 0xf4,
  0x10, 0x11, 0xf1, 0xf7, 0x00, 0x09, 0x09, 0xf1, 0x18, 0x05, 0xe7, 0x09,
  0xf5, 0xf4, 0x08, 0x00, 0xfb, 0x12, 0x13, 0x19, 0xfc, 0x11, 0xf8, 0xe8,
  0x0c, 0xf1, 0xfc, 0x04, 0xf0, 0x16, 0x19, 0x08, 0x0b, 0xf7, 0x0b, 0xec,
  0x00, 0x06, 0xee, 0x04, 0x18, 0xf5, 0x05, 0x0a, 0xec, 0x17, 0xef, 0x11,
  0x18, 0xf7, 0xf4, 0xec, 0x0c, 0xeb, 0x1a, 0xf5, 0xf3, 0xf5, 0xfa, 0x0d,
  0xff, 0xf0, 0xeb, 0x03, 0xe6, 0x02, 0x27, 0x04, 0xf2, 0xd8, 0x01, 0x0f,
  0xe2, 0x00, 0xff, 0x0f, 0xff, 0xe2, 0xe7, 0xfb, 0x04, 0xf8, 0x04, 0xe9,
  0x16, 0x0d, 0xfc, 0x0f, 0x3e, 0x04, 0x0e, 0xeb, 0x17, 0x05, 0x02, 0x06,
  0x1b, 0xfb, 0xe9, 0x15, 0xfa, 0x21, 0xe9, 0x08, 0x1b, 0xec, 0xef, 0xfb,
  0x01, 0x1c, 0xf2, 0xf7, 0xf7, 0xeb, 0xde, 0x18, 0xf4, 0x14, 0xfe, 0x0d,
  0x11, 0x12, 0xf9, 0xf3, 0x0a, 0x13, 0xfa, 0x17, 0x19, 0xec, 0xf2, 0x08,
  0xe1, 0xf1, 0x09, 0x1e, 0xf4, 0x06, 0xf3, 0xf5, 0x03, 0xfc, 0xf4, 0xf3,
  0xf3, 0x00, 0x0f, 0xfb, 0x0b, 0x1d, 0xfd, 0xe8, 0x25, 0x00, 0xeb, 0x15,
  0x0c, 0xf8, 0x1a, 0x0d, 0x18, 0x08, 0xf2, 0x0e, 0x0f, 0x16, 0xf2, 0x09,
  0x2b, 0x0e, 0xed, 0xf0, 0x03, 0x11, 0x0c, 0x1c, 0x0c, 0xf3, 0x05, 0xf9,
  0x0e, 0x1b, 0xf6, 0x06, 0x29, 0xec, 0x20, 0xef, 0xf3, 0x23, 0x06, 0x1d,
  0xf8, 0x09, 0xd9, 0x01, 0x19, 0x1c, 0x0d, 0xfc, 0x20, 0xee, 0x00, 0x15,
  0xfb, 0x1f, 0x19, 0x0b, 0x1c, 0xf3, 0xf4, 0x0d, 0xeb, 0xe7, 0x0d, 0x0d,
  0xe4, 0x06, 0x05, 0x0e, 0xf9, 0xf6, 0xfd, 0xfc, 0xff, 0x08, 0x08, 0xec,
  0x15, 0x26, 0x07, 0x01, 0x35, 0x01, 0xec, 0xf9, 0x13, 0x0c, 0x1e, 0x05,
  0x15, 0x09, 0xe3, 0x1f, 0x0b, 0xd7, 0x09, 0x05, 0xe5, 0xf9, 0xf3, 0x13,
  0x19, 0x0b, 0xef, 0xe7, 0x13, 0xf9, 0x17, 0x00, 0x14, 0xf4, 0x10, 0x07,
  0xda, 0x10, 0x4a, 0xf5, 0x14, 0x04, 0xf9, 0xfc, 0xea, 0x01, 0xf9, 0xe5,
  0x22, 0xfa, 0x03, 0xe0, 0xfb, 0x06, 0xda, 0xfb, 0xfa, 0x0b, 0x06, 0xff,
  0x0d, 0xe8, 0xe7, 0x11, 0xf7, 0x0c, 0xf1, 0xf4, 0x16, 0x08, 0xee, 0xf6,
  0x13, 0x0c, 0x1e, 0x01, 0xfc, 0xf4, 0xdb, 0xfa, 0xb8, 0x3d, 0xea, 0x09,
  0x6b, 0x87, 0xa5, 0x0e, 0x2b, 0x36, 0x14, 0x03, 0x35, 0xd4, 0xee, 0x11,
  0xcc, 0x6e, 0x05, 0xde, 0x7f, 0xdf, 0xba, 0x17, 0xf7, 0x2b, 0xf9, 0x14,
  0x23, 0xe4, 0xd1, 0x00, 0x04, 0x27, 0xd8, 0xf0, 0x3f, 0xe5, 0x47, 0x0e,
  0xf2, 0x0f, 0x0c, 0x08, 0x13, 0x01, 0xd2, 0x21, 0xfe, 0x01, 0x07, 0xe2,
  0x26, 0xfc, 0x8f, 0x28, 0xe1, 0x1c, 0xf5, 0x0e, 0xf7, 0x04, 0xe8, 0x10,
  0x0a, 0x0d, 0xef, 0x04, 0x1d, 0xf4, 0xc9, 0x1e, 0xeb, 0x1a, 0x08, 0xf9,
  0x0d, 0xfd, 0xf4, 0x16, 0x04, 0x09, 0x06, 0xfe, 0x3b, 0xc8, 0x85, 0x29,
  0xf5, 0x24, 0x1f, 0xff, 0x1b, 0xe6, 0x00, 0x0d, 0x15, 0x27, 0x06, 0xde,
  0x2e, 0xe8, 0xd5, 0x10, 0x00, 0x1a, 0xf9, 0x1b, 0x10, 0xe9, 0xfb, 0xf8,
  0xdc, 0x08, 0xf6, 0xfe, 0x37, 0xc9, 0xbd, 0x09, 0x06, 0xfd, 0x12, 0x06,
  0x11, 0xd2, 0xd7, 0x06, 0x47, 0x1a, 0x14, 0xe1, 0x37, 0xd7, 0xdf, 0x35,
  0xdd, 0x19, 0xec, 0x00, 0x00, 0x21, 0xba, 0xec, 0xf7, 0x0f, 0x00, 0x07,
  0x0c, 0xf6, 0x1f, 0xfe, 0x06, 0x0a, 0x23, 0x15, 0x1a, 0xfd, 0xf8, 0x08,
  0x37, 0x1a, 0xd7, 0xfb, 0x16, 0xfb, 0x4b, 0x0c, 0x06, 0x11, 0x12, 0x1c,
  0x2c, 0x02, 0xd1, 0x21, 0xbe, 0x05, 0xfd, 0x06, 0x55, 0xb5, 0x9d, 0x04,
  0x22, 0x18, 0x0c, 0x09, 0x1e, 0xd5, 0xe0, 0xf7, 0x08, 0x27, 0xea, 0xe4,
  0x27, 0x0f, 0x97, 0x33, 0xe1, 0x17, 0x0e, 0x1d, 0x18, 0x09, 0xb3, 0xf1,
  0xfb, 0x11, 0xf6, 0xe1, 0x19, 0xfb, 0xb7, 0xf9, 0xe5, 0x21, 0x0e, 0x0f,
  0xff, 0xde, 0xfa, 0x0e, 0x1d, 0x2d, 0xe7, 0x0e, 0x2e, 0x1b, 0xe9, 0x03,
  0xee, 0x1a, 0x22, 0x00, 0xfa, 0xec, 0xd0, 0x10, 0xcc, 0x11, 0x01, 0x0f,
  0x32, 0xb3, 0xae, 0x0b, 0x0e, 0x05, 0xfc, 0x1a, 0x00, 0xf8, 0xfe, 0x0a,
  0xc2, 0xbd, 0xff, 0xff, 0x04, 0x00, 0x00, 0x00, 0x00, 0x04, 0x00, 0x00,
  0xee, 0x10, 0x28, 0x09, 0x0c, 0x05, 0x1c, 0xfa, 0xfc, 0xfb, 0x0d, 0x1f,
  0x23, 0x3b, 0x0a, 0x0f, 0xba, 0xf2, 0xef, 0xfd, 0x2b, 0x06, 0x1c, 0x01,
  0xff, 0x02, 0x0d, 0x18, 0x19, 0xff, 0xfb, 0x00, 0x07, 0x03, 0x16, 0x0c,
  0x07, 0xc5, 0x09, 0xf3, 0xed, 0x20, 0xfa, 0x06, 0x1b, 0xdd, 0x18, 0x12,
  0x0c, 0xe0, 0xe9, 0x10, 0x1f, 0xd0, 0xfc, 0x35, 0xf2, 0x0b, 0x02, 0xdf,
  0x15, 0xff, 0x0d, 0x11, 0xf8, 0xe9, 0xfc, 0x06, 0xf0, 0x2b, 0x01, 0x1b,
  0x14, 0x07, 0xf8, 0x1a, 0xf9, 0xec, 0x09, 0xff, 0xd3, 0xf1, 0x1a, 0x19,
  0x20, 0xdb, 0x20, 0x18, 0xe0, 0x31, 0xe1, 0x1a, 0x15, 0xec, 0x26, 0x12,
  0xd2, 0xd6, 0xfd, 0x13, 0x0f, 0xf2, 0x09, 0xfa, 0xe5, 0xf0, 0xe4, 0xfe,
  0x04, 0xfe, 0x11, 0x0b, 0x00, 0x07, 0x03, 0xf8, 0x28, 0xee, 0xf5, 0x1e,
  0xea, 0x19, 0xfc, 0xef, 0xe2, 0xc9, 0xfd, 0x04, 0xd6, 0x1a, 0x38, 0x04,
  0x0f, 0x0f, 0xeb, 0x10, 0xef, 0x09, 0xcc, 0x0b, 0xfb, 0xe6, 0xfb, 0x16,
  0xdc, 0xef, 0xe0, 0x1f, 0x15, 0xf9, 0x38, 0x21, 0xda, 0x0e, 0x01, 0x14,
  0xe0, 0xe5, 0xef, 0xfd, 0xeb, 0xf6, 0x1c, 0x10, 0xfc, 0xf2, 0xfe, 0x2a,
  0xe3, 0x04, 0xd6, 0x17, 0x0d, 0xd4, 0xe4, 0x36, 0xdd, 0x30, 0x0f, 0x2a,
  0xfe, 0x00, 0x01, 0x2c, 0x01, 0xfc, 0x1a, 0x1f, 0xec, 0xe7, 0x02, 0x15,
  0xfc, 0x04, 0x13, 0x22, 0x22, 0xf9, 0x0c, 0x2c, 0xe8, 0x1a, 0xf8, 0x44,
  0x09, 0xec, 0xfe, 0xf3, 0xfd, 0x0a, 0x18, 0x2a, 0x00, 0xe2, 0x1a, 0xf9,
  0xfa, 0x1e, 0xa9, 0x03, 0xe1, 0xde, 0x23, 0x2d, 0xcb, 0xc2, 0x12, 0x26,
  0x1b, 0xe6, 0xea, 0x17, 0x1b, 0x2b, 0xca, 0x25, 0xff, 0xe2, 0xd9, 0x0e,
  0xea, 0xe7, 0x01, 0xdd, 0xff, 0xf4, 0x16, 0x0b, 0xf7, 0x0e, 0xfe, 0xf9,
  0xee, 0xe0, 0x00, 0x1d, 0xe8, 0xef, 0x1a, 0xd2, 0xfb, 0xf2, 0x1b, 0xe8,
  0x19, 0xed, 0x1b, 0x02, 0xeb, 0xf4, 0x34, 0x14, 0xe7, 0x13, 0xec, 0x20,
  0x15, 0x09, 0x06, 0x1c, 0x1f, 0x0a, 0xde, 0xd3, 0x01, 0xf3, 0x0f, 0xef,
  0xe5, 0xf3, 0xff, 0x0f, 0xfd, 0xee, 0xed, 0xf5, 0x02, 0x14, 0xef, 0x11,
  0xea, 0xda, 0x0c, 0x17, 0xca, 0x0d, 0x09, 0xf9, 0xe2, 0xeb, 0x0e, 0x00,
  0x05, 0x0d, 0xd0, 0x0e, 0xdb, 0x10, 0x03, 0x0b, 0xd8, 0xde, 0xd3, 0x17,
  0xff, 0xd6, 0x11, 0xfc, 0xda, 0x0e, 0x1c, 0xf8, 0x08, 0x0d, 0xf9, 0x0a,
  0xdf, 0xe4, 0xff, 0x29, 0x0a, 0x01, 0xf1, 0x0a, 0x04, 0x13, 0x13, 0xff,
  0x2b, 0xe7, 0x20, 0x0a, 0x09, 0x04, 0x08, 0x14, 0x1a, 0xe7, 0xda, 0xfb,
  0x03, 0x0d, 0xef, 0x2d, 0xfc, 0x1a, 0x08, 0xfc, 0xdc, 0xea, 0x18, 0x20,
  0xef, 0xe0, 0xe0, 0x10, 0xed, 0xf9, 0xf4, 0xf2, 0x04, 0x08, 0x0c, 0x18,
  0xf4, 0xff, 0xf9, 0x01, 0xe3, 0xe0, 0xfb, 0x1a, 0xfb, 0xe1, 0xc1, 0x24,
  0xf7, 0xe5, 0x1d, 0xf6, 0xfb, 0xe2, 0xfd, 0x07, 0xfe, 0x15, 0x17, 0x1d,
  0xfa, 0xf8, 0xc7, 0xd6, 0x20, 0x08, 0x02, 0x01, 0xf2, 0xf8, 0x14, 0x08,
  0x07, 0xf7, 0xf4, 0x18, 0x02, 0x1c, 0x00, 0x18, 0xfa, 0xef, 0x27, 0x06,
  0xe5, 0xed, 0x10, 0x0e, 0x17, 0xea, 0x04, 0x0a, 0xe4, 0xe4, 0xf9, 0x10,
  0x0c, 0xfc, 0x12, 0x21, 0xe8, 0xe8, 0x18, 0x4b, 0x00, 0x0d, 0xf9, 0xfe,
  0xf0, 0x0c, 0xfa, 0x0c, 0xe8, 0x21, 0xf6, 0x0f, 0x04, 0xf6, 0x02, 0x15,
  0xef, 0x09, 0x32, 0xe9, 0xc0, 0x21, 0x05, 0xf0, 0xff, 0x07, 0xf7, 0xe9,
  0x09, 0x09, 0xd2, 0x17, 0x18, 0x02, 0x14, 0x28, 0xed, 0x0b, 0xf3, 0xe5,
  0x14, 0x09, 0x0f, 0x02, 0xff, 0xe1, 0xf9, 0xf5, 0x2c, 0x05, 0x0c, 0xe4,
  0xf2, 0x20, 0xcf, 0x12, 0xdf, 0xfc, 0xea, 0xf3, 0x0e, 0xfd, 0xd7, 0xef,
  0x0d, 0x0c, 0xe9, 0xf7, 0xe5, 0xe8, 0x0d, 0xf9, 0x12, 0x1d, 0x36, 0x1c,
  0x0c, 0xfd, 0x12, 0x11, 0x22, 0x23, 0xf9, 0xf2, 0x13, 0xfe, 0x1c, 0xec,
  0x05, 0x1a, 0xf2, 0x03, 0xec, 0x1a, 0x06, 0x1c, 0x1d, 0xf8, 0x15, 0x02,
  0xe5, 0xdb, 0xf5, 0x2c, 0xe1, 0x05, 0x13, 0xfa, 0xec, 0x0f, 0x0f, 0xec,
  0x2c, 0x32, 0xf8, 0x15, 0xef, 0x17, 0xda, 0xe4, 0xee, 0x1e, 0x25, 0x04,
  0x1a, 0xec, 0xff, 0xf9, 0xff, 0x02, 0xef, 0x19, 0xe0, 0x07, 0x1d, 0x15,
  0x01, 0x08, 0x04, 0x29, 0x0b, 0x2f, 0xca, 0x0d, 0x03, 0x1b, 0xec, 0xea,
  0x07, 0x13, 0xfd, 0x01, 0x0d, 0xf9, 0xfa, 0x18, 0x08, 0xef, 0xec, 0xf8,
  0xf1, 0xf6, 0x06, 0x0d, 0xed, 0x0b, 0xf8, 0x0c, 0xed, 0x0e, 0xfd, 0x2e,
  0xec, 0xf1, 0x2a, 0xf3, 0x12, 0xf3, 0x0f, 0x06, 0xfc, 0x26, 0xe8, 0xe8,
  0x18, 0xf5, 0x0a, 0xf6, 0x02, 0xe4, 0x3f, 0x0c, 0x2a, 0xf0, 0x3c, 0x29,
  0x03, 0xe7, 0xd3, 0x19, 0xfc, 0xd1, 0x03, 0x2f, 0xf8, 0xe6, 0x06, 0x2b,
  0x05, 0x10, 0xfc, 0xff, 0x17, 0xf2, 0xed, 0xec, 0xde, 0xde, 0x0c, 0x09,
  0x2e, 0xeb, 0xe7, 0xfa, 0xc1, 0x1a, 0x11, 0x12, 0xf9, 0xf8, 0x19, 0xfb,
  0x11, 0x0b, 0x11, 0x00, 0xfa, 0x17, 0xf7, 0x2a, 0x1a, 0xe5, 0x1e, 0x18,
  0x00, 0x10, 0x09, 0xf3, 0xfc, 0xff, 0xf0, 0x22, 0xec, 0xf5, 0xf2, 0xfd,
  0xe3, 0x0c, 0x00, 0x0d, 0x12, 0xf7, 0xf5, 0xe2, 0x0c, 0x0d, 0xf1, 0xd1,
  0x23, 0x01, 0x22, 0xf1, 0x12, 0xdf, 0x12, 0xef, 0x28, 0x07, 0xcc, 0xdf,
  0x02, 0x11, 0xe7, 0x01, 0x07, 0x0d, 0xfa, 0xfa, 0x00, 0xfa, 0x11, 0x10,
  0xd8, 0xf9, 0x42, 0xe8, 0xfb, 0x19, 0xe8, 0xed, 0xee, 0xe0, 0x04, 0xfe,
  0x1a, 0x08, 0x02, 0x28, 0xf4, 0xfb, 0xdf, 0x0d, 0xeb, 0xfc, 0x18, 0x2d,
  0x0b, 0xe9, 0xe5, 0xf7, 0x1f, 0x03, 0xf3, 0xef, 0xe1, 0xe3, 0x39, 0xe3,
  0x1a, 0xf8, 0xed, 0xf8, 0xe9, 0xd6, 0xd8, 0x32, 0xf1, 0x11, 0x00, 0xbe,
  0xd8, 0xd9, 0x25, 0xf4, 0x21, 0xaf, 0x18, 0x2e, 0xf9, 0xe3, 0x09, 0x34,
  0x1a, 0xc2, 0x43, 0x0a, 0x37, 0x17, 0xb5, 0x1e, 0xdb, 0x04, 0x19, 0x1f,
  0xee, 0x16, 0xf2, 0x11, 0x01, 0xd8, 0x0a, 0x03, 0xb0, 0x0c, 0x3f, 0x0b,
  0x62, 0xea, 0x27, 0xe6, 0xbe, 0xe8, 0x0f, 0x0f, 0xed, 0xe3, 0x10, 0x27,
  0x00, 0xf5, 0xf3, 0x11, 0xe0, 0xed, 0xe9, 0x30, 0xd9, 0x1a, 0xea, 0x14,
  0x01, 0xff, 0x29, 0x08, 0xf8, 0xf7, 0x39, 0x00, 0x3d, 0xdd, 0x04, 0x11,
  0xf0, 0xf4, 0xfa, 0xfb, 0x0e, 0xfe, 0x0a, 0x02, 0x18, 0x0c, 0xcf, 0x33,
  0x2d, 0xf9, 0xed, 0x25, 0xc4, 0xee, 0x07, 0x0e, 0x26, 0xde, 0x09, 0x1c,
  0xa0, 0xeb, 0x09, 0x17, 0x15, 0xe5, 0x0e, 0x1e, 0x16, 0xe9, 0x0c, 0x22,
  0x09, 0xfe, 0x20, 0xca, 0x25, 0x00, 0xf2, 0x14, 0xe2, 0xb0, 0x13, 0x1d,
  0xeb, 0xc1, 0x41, 0x2f, 0x06, 0xfe, 0x23, 0x2a, 0x03, 0x45, 0xe2, 0x13,
  0xe2, 0xdf, 0x2a, 0x11, 0xe3, 0xe5, 0x03, 0x04, 0x2c, 0xea, 0x22, 0x49,
  0x22, 0x44, 0xcc, 0x3e, 0xd5, 0xdd, 0x25, 0x2c, 0xd9, 0xf8, 0x13, 0x2b,
  0x04, 0x0e, 0x1f, 0x16, 0xa3, 0x03, 0x3b, 0x21, 0x46, 0xff, 0xee, 0x3b,
  0xf3, 0xc6, 0xdd, 0x5d, 0x62, 0xea, 0x10, 0x23, 0x0f, 0xc8, 0x1a, 0x21,
  0xe1, 0xac, 0x7f, 0xe6, 0xf4, 0xda, 0x21, 0x2c, 0x21, 0xef, 0xf7, 0x07,
  0x06, 0x18, 0xbb, 0x20, 0xd7, 0xfe, 0x18, 0x02, 0xf9, 0xe0, 0x0d, 0x0c,
  0xfb, 0x15, 0x31, 0xf9, 0xf2, 0x1e, 0xc2, 0x11, 0xfa, 0xd4, 0x09, 0x04,
  0xca, 0xfc, 0xe2, 0x01, 0x01, 0xf8, 0x0f, 0xfe, 0xd0, 0x38, 0x2a, 0xfc,
  0x22, 0x03, 0x1e, 0x3d, 0x44, 0xa6, 0xff, 0xff, 0xd2, 0xc1, 0xff, 0xff,
  0x04, 0x00, 0x00, 0x00, 0x00, 0x01, 0x00, 0x00, 0x26, 0x53, 0xfc, 0x3d,
  0xc2, 0x55, 0xb5, 0x3d, 0x48, 0x6f, 0x25, 0x3e, 0x07, 0xfc, 0xf0, 0x3d,
  0x21, 0x67, 0x8e, 0x3d, 0xf9, 0x52, 0x07, 0x3e, 0x2b, 0xe0, 0x01, 0x3e,
  0x49, 0x2d, 0x03, 0x3e, 0x3c, 0x0f, 0x20, 0x3e, 0xb8, 0x84, 0xff, 0x3d,
  0x31, 0x5a, 0x7f, 0x3e, 0x1e, 0x2b, 0x3c, 0x3e, 0x2f, 0xdb, 0x6c, 0x3d,
  0x4e, 0x0e, 0x09, 0x3e, 0xfd, 0xdb, 0x01, 0x3e, 0x28, 0x69, 0xe8, 0x3d,
  0xd1, 0x1b, 0x83, 0x3f, 0xf8, 0xbd, 0x84, 0x3f, 0x13, 0x0f, 0x85, 0x3f,
  0xa0, 0xe6, 0x87, 0x3f, 0xf7, 0xcd, 0x7d, 0x3f, 0xbf, 0xfd, 0x84, 0x3f,
  0x8c, 0x09, 0x86, 0x3f, 0x23, 0x39, 0x88, 0x3f, 0x41, 0xa8, 0x7f, 0x3f,
  0x44, 0x86, 0x85, 0x3f, 0x7e, 0x90, 0x85, 0x3f, 0x10, 0xfa, 0x84, 0x3f,
  0x76, 0xee, 0x7d, 0x3f, 0x57, 0xff, 0x86, 0x3f, 0x3e, 0x60, 0x84, 0x3f,
  0x77, 0x0f, 0x85, 0x3f, 0xb5, 0xf7, 0x6b, 0xbd, 0x6a, 0x22, 0x54, 0xbd,
  0x07, 0x07, 0x8e, 0x3d, 0x66, 0xc3, 0x7c, 0x3d, 0xe4, 0x34, 0x05, 0x3d,
  0xa4, 0xcd, 0xbb, 0xbd, 0xf0, 0x2b, 0x88, 0x3d, 0x6b, 0x25, 0x88, 0x3d,
  0xba, 0x0b, 0x87, 0x3e, 0x5b, 0x7f, 0x97, 0x3d, 0xe8, 0x2b, 0x78, 0xbd,
  0xba, 0xd7, 0xfb, 0x3d, 0xa9, 0x1a, 0x75, 0xbd, 0x1a, 0xa4, 0x4b, 0xbd,
  0x43, 0x8e, 0x04, 0x3d, 0xc3, 0x56, 0xae, 0x3d, 0x92, 0x42, 0xb7, 0x3c,
  0xd1, 0x1f, 0x8b, 0x3b, 0xd6, 0x3d, 0x63, 0x3e, 0x17, 0x1a, 0xb2, 0x3d,
  0x6d, 0x23, 0xd1, 0x3d, 0x70, 0x8f, 0x5e, 0x3d, 0x23, 0xe1, 0xdc, 0x3d,
  0x17, 0xe9, 0xbb, 0x3d, 0x04, 0x9b, 0xd7, 0x3d, 0x2c, 0x5e, 0xfe, 0x3d,
  0x0f, 0x86, 0x8c, 0x3e, 0xee, 0xdd, 0xb8, 0x3d, 0x5d, 0x20, 0x11, 0xbd,
  0x7d, 0xc7, 0x19, 0x3e, 0x0c, 0x3b, 0x0e, 0x3e, 0x26, 0xa2, 0xcb, 0x3d,
  0x54, 0xa7, 0xff, 0xff, 0x58, 0xa7, 0xff, 0xff, 0x5c, 0xa7, 0xff, 0xff,
  0x60, 0xa7, 0xff, 0xff, 0x64, 0xa7, 0xff, 0xff, 0x68, 0xa7, 0xff, 0xff,
  0x6c, 0xa7, 0xff, 0xff, 0x70, 0xa7, 0xff, 0xff, 0x74, 0xa7, 0xff, 0xff,
  0x78, 0xa7, 0xff, 0xff, 0x7c, 0xa7, 0xff, 0xff, 0x80, 0xa7, 0xff, 0xff,
  0x84, 0xa7, 0xff, 0xff, 0x88, 0xa7, 0xff, 0xff, 0x8c, 0xa7, 0xff, 0xff,
  0x90, 0xa7, 0xff, 0xff, 0x94, 0xa7, 0xff, 0xff, 0x98, 0xa7, 0xff, 0xff,
  0x9c, 0xa7, 0xff, 0xff, 0xa0, 0xa7, 0xff, 0xff, 0xa4, 0xa7, 0xff, 0xff,
  0xa8, 0xa7, 0xff, 0xff, 0xac, 0xa7, 0xff, 0xff, 0xb0, 0xa7, 0xff, 0xff,
  0xb4, 0xa7, 0xff, 0xff, 0xb8, 0xa7, 0xff, 0xff, 0xbc, 0xa7, 0xff, 0xff,
  0xc0, 0xa7, 0xff, 0xff, 0xc4, 0xa7, 0xff, 0xff, 0xc8, 0xa7, 0xff, 0xff,
  0xcc, 0xa7, 0xff, 0xff, 0xd0, 0xa7, 0xff, 0xff, 0xd4, 0xa7, 0xff, 0xff,
  0xd8, 0xa7, 0xff, 0xff, 0xdc, 0xa7, 0xff, 0xff, 0xe0, 0xa7, 0xff, 0xff,
  0xe4, 0xa7, 0xff, 0xff, 0x72, 0xc3, 0xff, 0xff, 0x04, 0x00, 0x00, 0x00,
  0x00, 0x04, 0x00, 0x00, 0x1a, 0x41, 0xfe, 0xfa, 0x04, 0xfd, 0x5f, 0xf6,
  0xf6, 0x06, 0x17, 0x02, 0x0c, 0xff, 0xe1, 0x11, 0x06, 0xfc, 0x06, 0xf9,
  0x0d, 0xf6, 0x00, 0x0d, 0xe1, 0xfb, 0x00, 0x15, 0x04, 0xff, 0x06, 0x1c,
  0xfe, 0x07, 0xf9, 0x03, 0x09, 0xfb, 0xfd, 0x07, 0x08, 0x15, 0x03, 0x0b,
  0xfd, 0x04, 0xfc, 0x0c, 0x17, 0x00, 0xed, 0x02, 0x11, 0xfd, 0x23, 0xfa,
  0x07, 0x04, 0x02, 0x04, 0x0c, 0xf2, 0xfa, 0x05, 0xfc, 0x0f, 0x09, 0x1a,
  0xfc, 0xfc, 0xdf, 0x04, 0x05, 0x0a, 0xf6, 0x06, 0xff, 0xf3, 0x04, 0x17,
  0x1f, 0x22, 0xe7, 0x00, 0x1a, 0x00, 0x33, 0xf8, 0xf4, 0x09, 0x0d, 0x05,
  0x10, 0xf8, 0xf0, 0x1b, 0x25, 0x0d, 0xf4, 0xf3, 0xf9, 0x13, 0x48, 0xe0,
  0xdf, 0x20, 0x15, 0x21, 0xf1, 0x09, 0xda, 0x0f, 0x06, 0x25, 0xfd, 0xfb,
  0x2e, 0x05, 0x0f, 0xef, 0xfe, 0xfc, 0x1b, 0x14, 0xf9, 0xf3, 0xf1, 0x03,
  0x0a, 0xfe, 0xf8, 0x04, 0x12, 0xf8, 0x2d, 0x0e, 0x06, 0x1d, 0x09, 0x09,
  0xff, 0xf5, 0x05, 0xfc, 0xfe, 0x06, 0xf1, 0xfe, 0x04, 0x0f, 0xf2, 0x10,
  0xfb, 0x03, 0x13, 0xee, 0xfa, 0xfe, 0x06, 0x08, 0xf4, 0x0d, 0xef, 0xfb,
  0xfc, 0x03, 0x1e, 0xfb, 0xfc, 0x0a, 0xf9, 0x10, 0x20, 0x18, 0xee, 0x07,
  0x0e, 0x19, 0xfd, 0xe8, 0x02, 0x02, 0x10, 0x10, 0x02, 0x05, 0xfd, 0x15,
  0x04, 0xf9, 0xfc, 0xf7, 0xfc, 0x01, 0xeb, 0xf3, 0x01, 0x10, 0xef, 0x04,
  0xf9, 0x04, 0xf5, 0xff, 0x0b, 0xfd, 0x07, 0x06, 0x2c, 0x34, 0xfc, 0x05,
  0x2e, 0x09, 0x30, 0xf4, 0xed, 0x04, 0x16, 0x08, 0x0f, 0xfe, 0xdd, 0x13,
  0x23, 0x0a, 0xfc, 0xf3, 0x0e, 0x0c, 0x1d, 0xf3, 0xf8, 0x0b, 0x07, 0xfb,
  0x09, 0x17, 0x22, 0x10, 0xff, 0x04, 0x04, 0x01, 0xf7, 0x13, 0xf5, 0x18,
  0x01, 0x01, 0x06, 0xf8, 0x06, 0xf1, 0xef, 0x0f, 0x06, 0x3b, 0xf3, 0xe2,
  0x20, 0x04, 0xfc, 0x10, 0x00, 0x17, 0x0c, 0x12, 0xff, 0x08, 0xe8, 0x19,
  0x11, 0x02, 0xe5, 0xe6, 0x10, 0xfa, 0x1f, 0xf9, 0xfc, 0x09, 0x11, 0x0a,
  0x02, 0xf8, 0xe8, 0x14, 0x0e, 0x02, 0x05, 0xfb, 0x0f, 0x0a, 0xf1, 0x19,
  0xf0, 0xff, 0x0a, 0xfd, 0x1a, 0x07, 0xfa, 0x01, 0x0c, 0xfa, 0xfc, 0xf3,
  0xff, 0x06, 0x01, 0xfd, 0x0a, 0x09, 0x02, 0xfa, 0x09, 0x0a, 0x04, 0xf5,
  0x07, 0x1d, 0x01, 0x0c, 0x0b, 0xf7, 0xfd, 0x06, 0x0b, 0xfc, 0xfc, 0x13,
  0x09, 0x0b, 0x0a, 0xfa, 0xe4, 0xee, 0x11, 0xf1, 0xe9, 0xf1, 0xba, 0x06,
  0x08, 0xee, 0x05, 0x07, 0x01, 0xf9, 0xf1, 0x0b, 0x3f, 0x26, 0x03, 0xb7,
  0xf8, 0x1b, 0x1b, 0x05, 0xe8, 0x11, 0x08, 0xf4, 0xf7, 0x06, 0xe1, 0x0d,
  0x0e, 0x0f, 0xf4, 0x0a, 0x07, 0xee, 0x01, 0xf6, 0xf6, 0x0e, 0x0a, 0xfc,
  0x01, 0x08, 0xf2, 0x12, 0xf1, 0x0e, 0xf0, 0xf9, 0x07, 0xf0, 0xf8, 0x11,
  0xfa, 0xfd, 0xee, 0xfd, 0x01, 0xe8, 0x04, 0xfd, 0x0c, 0x03, 0xfc, 0xec,
  0x04, 0xfc, 0x05, 0x0d, 0xf6, 0xf8, 0x06, 0xfa, 0xee, 0xf8, 0xeb, 0x04,
  0x04, 0x10, 0xf7, 0xed, 0x06, 0x06, 0x03, 0x09, 0xf6, 0x15, 0xf6, 0xfb,
  0x03, 0x05, 0xff, 0x09, 0xff, 0x08, 0xfa, 0xee, 0x0a, 0x00, 0x04, 0xf8,
  0xe9, 0x0f, 0xfa, 0xff, 0xf6, 0x06, 0xfb, 0xfc, 0x01, 0xfd, 0x05, 0xf8,
  0x07, 0xfe, 0x0e, 0x0c, 0xf9, 0x0f, 0xfe, 0xf7, 0xff, 0xfc, 0x04, 0xfc,
  0xf9, 0xef, 0x08, 0x00, 0xf0, 0x17, 0xfc, 0xfd, 0xf8, 0x09, 0xfc, 0xf2,
  0x00, 0xff, 0x0e, 0x11, 0xeb, 0xe1, 0x13, 0xf5, 0xe4, 0xfc, 0xd7, 0x24,
  0x04, 0x07, 0xf7, 0xed, 0xff, 0x00, 0x22, 0xec, 0x11, 0x0e, 0x02, 0xf1,
  0xfa, 0xfc, 0x0c, 0xf5, 0xf8, 0xf7, 0x06, 0x0e, 0x04, 0xff, 0x09, 0xf5,
  0x0c, 0xf6, 0x01, 0xec, 0xfa, 0x13, 0xfe, 0xfb, 0x15, 0x02, 0x16, 0xfe,
  0xf8, 0x17, 0x19, 0x07, 0xf9, 0x01, 0xec, 0x01, 0x13, 0xf2, 0x02, 0xea,
  0xf1, 0x0b, 0x05, 0x11, 0x0b, 0xef, 0x00, 0xfd, 0x17, 0xec, 0x0e, 0x06,
  0x00, 0xfc, 0xeb, 0xf0, 0xed, 0x01, 0x04, 0xf6, 0x06, 0xfe, 0x06, 0xf5,
  0x0e, 0x20, 0xea, 0x0a, 0x06, 0x02, 0x1d, 0xf0, 0xfb, 0x02, 0x08, 0x02,
  0x01, 0xfe, 0xeb, 0x1d, 0xf9, 0xf2, 0x07, 0x00, 0x12, 0x06, 0x02, 0x04,
  0xfe, 0x0d, 0x0b, 0x06, 0xff, 0x0d, 0xec, 0xfa, 0x00, 0x10, 0xf3, 0xf2,
  0x15, 0xe9, 0xfa, 0xfd, 0xfd, 0x0b, 0x07, 0x0f, 0x04, 0xef, 0xec, 0x03,
  0x12, 0x0e, 0xef, 0x00, 0x06, 0x00, 0x16, 0x01, 0xfd, 0x12, 0x0b, 0x13,
  0x01, 0x19, 0xea, 0x0b, 0xeb, 0xd7, 0x0f, 0x13, 0xea, 0x0e, 0xe2, 0x08,
  0xf7, 0xf0, 0xf5, 0xf2, 0xd7, 0x0d, 0x10, 0xf5, 0x06, 0xff, 0x0f, 0x08,
  0x07, 0x09, 0x19, 0xf4, 0x0b, 0x07, 0xf7, 0x0b, 0xf1, 0xf3, 0xf2, 0x10,
  0x17, 0xf3, 0x00, 0xfd, 0xfe, 0xf8, 0x0c, 0x00, 0x09, 0xfb, 0xfd, 0x04,
  0xfb, 0x06, 0x0a, 0x08, 0xf8, 0x1d, 0x05, 0x01, 0x08, 0x00, 0x04, 0x01,
  0xe8, 0x12, 0x02, 0x11, 0x06, 0xf8, 0xff, 0xf5, 0xff, 0x07, 0xf0, 0xf4,
  0xf7, 0xf8, 0x0d, 0x06, 0xff, 0x11, 0x10, 0xfd, 0x03, 0xe6, 0xf4, 0x0e,
  0x15, 0xe9, 0x07, 0xf7, 0x03, 0x14, 0xf7, 0x0b, 0x0a, 0xff, 0x08, 0x15,
  0xfa, 0xf5, 0x0e, 0x05, 0xf8, 0x19, 0xe8, 0x00, 0x07, 0xfd, 0x0e, 0x02,
  0xf6, 0x05, 0x0f, 0x06, 0xff, 0x07, 0xf8, 0x08, 0x04, 0xf0, 0xf5, 0x01,
  0xed, 0x24, 0x17, 0x03, 0xe5, 0xf8, 0xee, 0x08, 0xf5, 0x08, 0x0c, 0x14,
  0x07, 0x0e, 0x08, 0xfc, 0x03, 0xfb, 0x00, 0xf3, 0xfe, 0x13, 0xfc, 0xff,
  0x00, 0x01, 0x03, 0x02, 0x0a, 0x36, 0x04, 0xfe, 0xff, 0xfe, 0x5f, 0xf6,
  0x02, 0x22, 0x1b, 0x15, 0x0b, 0x14, 0xb8, 0x14, 0xfe, 0x05, 0x19, 0xe1,
  0xe6, 0x20, 0xd0, 0x16, 0xfb, 0xf8, 0xf6, 0xed, 0xf4, 0xff, 0x51, 0xfd,
  0xca, 0x00, 0x10, 0xf7, 0x0f, 0xdd, 0xf7, 0x19, 0x05, 0x01, 0x0d, 0xf8,
  0xfe, 0xf7, 0x02, 0x00, 0x1b, 0x22, 0xfe, 0x00, 0xff, 0xf5, 0x1d, 0xeb,
  0x07, 0x1c, 0xff, 0xf4, 0xf5, 0x10, 0xe5, 0x05, 0xee, 0xeb, 0x27, 0x00,
  0xda, 0x38, 0xe7, 0x34, 0xf6, 0xdd, 0xd9, 0xb7, 0xc4, 0xff, 0x7f, 0xe0,
  0x1d, 0x31, 0xf2, 0xff, 0x25, 0x04, 0x2c, 0xf9, 0xef, 0xfe, 0xf9, 0xf6,
  0x0b, 0x0c, 0xdd, 0x0e, 0x1e, 0x2c, 0xf2, 0xde, 0x47, 0x05, 0x33, 0xdd,
  0x08, 0x0a, 0x16, 0x19, 0x1d, 0x06, 0xbe, 0x34, 0xf9, 0x05, 0x00, 0xfe,
  0x35, 0xf3, 0x1e, 0xf7, 0x01, 0xfc, 0xfd, 0x0b, 0xf4, 0x09, 0xe6, 0x04,
  0xfb, 0xfa, 0x03, 0x05, 0x18, 0xff, 0xff, 0x04, 0x07, 0x1b, 0xfb, 0x14,
  0x1d, 0xef, 0xd0, 0x17, 0xf9, 0xdd, 0x1a, 0xe8, 0xd0, 0xfc, 0xea, 0x1d,
  0xf4, 0xe8, 0xf6, 0xdf, 0xf8, 0x03, 0x3b, 0xef, 0x04, 0x00, 0xf3, 0xf3,
  0x02, 0xe8, 0xef, 0x1e, 0x07, 0x05, 0x00, 0x02, 0x00, 0xf7, 0xfb, 0xf9,
  0xf1, 0xe4, 0xf7, 0xf5, 0xec, 0xf4, 0xd3, 0x0a, 0x0f, 0xf6, 0xea, 0x07,
  0xef, 0x0f, 0x0d, 0xfd, 0xe6, 0xe7, 0x1e, 0xfb, 0xe8, 0xe3, 0xd2, 0x20,
  0x02, 0xf2, 0xe6, 0xf9, 0x07, 0xe4, 0x1e, 0xf7, 0x34, 0x22, 0xee, 0x04,
  0x05, 0x06, 0x0b, 0x05, 0xf5, 0x03, 0x0e, 0x0e, 0x00, 0x0c, 0xdb, 0x11,
  0x2c, 0x1c, 0x06, 0xf2, 0x11, 0xfc, 0x22, 0xf9, 0xf7, 0x18, 0xfd, 0x0c,
  0xf9, 0xf4, 0xff, 0x0a, 0xfd, 0xf8, 0xf6, 0xe5, 0xe0, 0xfe, 0xde, 0xfe,
  0x0c, 0x03, 0xfe, 0x0d, 0x01, 0xf3, 0x11, 0xfd, 0x7e, 0xc7, 0xff, 0xff,
  0x04, 0x00, 0x00, 0x00, 0x00, 0x04, 0x00, 0x00, 0xa3, 0x41, 0x65, 0x3e,
  0x21, 0xf3, 0xd2, 0xbd, 0x1f, 0x75, 0x91, 0x3d, 0xa7, 0xfd, 0x87, 0x3e,
  0x53, 0xd8, 0x22, 0xbd, 0xe6, 0x85, 0x3c, 0x3e, 0x22, 0x1e, 0xe5, 0xbd,
  0xcc, 0x39, 0xa8, 0x3e, 0x69, 0x8b, 0x96, 0x3e, 0x8e, 0xc4, 0xad, 0x3e,
  0xd5, 0xb3, 0x02, 0x3d, 0x05, 0x39, 0xbc, 0x3e, 0xc2, 0x2a, 0x76, 0x3e,
  0x07, 0x93, 0x03, 0x3e, 0x12, 0xfb, 0xd3, 0x3d, 0xf0, 0x3d, 0xc0, 0x3e,
  0xf5, 0x87, 0x31, 0x3e, 0x4b, 0x64, 0x2a, 0x3e, 0x7a, 0x9c, 0x82, 0x3e,
  0x2b, 0x1e, 0x39, 0x3c, 0x88, 0xfc, 0x9e, 0x3c, 0x04, 0x90, 0xb6, 0x3d,
  0xac, 0x1f, 0x31, 0x3c, 0x8e, 0x9c, 0x45, 0x3e, 0x5d, 0x65, 0xfb, 0xbd,
  0xf1, 0x3f, 0x32, 0xbe, 0xb2, 0x63, 0xe2, 0xbb, 0xb3, 0x69, 0xa0, 0xbe,
  0x9c, 0x81, 0x40, 0x3e, 0x4b, 0x3b, 0xc9, 0xbd, 0xf4, 0xd3, 0x4f, 0x3e,
  0x51, 0x0a, 0x8c, 0xbc, 0xe1, 0x9a, 0x1f, 0xbe, 0x8c, 0x8d, 0x94, 0x3e,
  0xe8, 0xb6, 0x3b, 0xbe, 0x45, 0x5f, 0x89, 0xbc, 0xa4, 0x5e, 0x38, 0x3e,
  0x0f, 0xba, 0x9d, 0x3d, 0x67, 0xb2, 0x0d, 0x3e, 0xd4, 0x54, 0x24, 0xbe,
  0xc2, 0x36, 0x2d, 0x3e, 0x85, 0x0e, 0xd4, 0x3d, 0xe9, 0x69, 0x98, 0x3d,
  0x0c, 0x08, 0x22, 0x3d, 0xf7, 0x81, 0x4f, 0x3d, 0xfb, 0x0e, 0x50, 0x3e,
  0x1a, 0x50, 0x18, 0x3c, 0x0e, 0x74, 0xa5, 0x3e, 0x9a, 0xaf, 0x2a, 0xbe,
  0x74, 0x70, 0xac, 0x3d, 0xd6, 0x8a, 0x92, 0x3e, 0x0d, 0x00, 0x30, 0x3e,
  0xd2, 0xc3, 0x96, 0x3d, 0x01, 0x76, 0x9f, 0x3e, 0x11, 0xf4, 0xc8, 0xbd,
  0x43, 0x99, 0xa5, 0x3e, 0x71, 0xa0, 0x5a, 0x3e, 0x24, 0x29, 0x35, 0x3e,
  0x7a, 0x2d, 0x2b, 0x3d, 0xcc, 0x2d, 0x5b, 0x3e, 0x2c, 0x7c, 0xcc, 0x3e,
  0x86, 0xc7, 0x91, 0xbd, 0x73, 0xa3, 0x80, 0xbd, 0xbe, 0x37, 0xa6, 0x3e,
  0xca, 0xbd, 0xbe, 0xbd, 0x4d, 0x8e, 0xca, 0xbe, 0xeb, 0x8e, 0x93, 0xbc,
  0x83, 0xc9, 0x1f, 0x3e, 0x8d, 0x45, 0x72, 0x3d, 0xb9, 0xd3, 0x3e, 0x3b,
  0xd8, 0xc1, 0x87, 0x3c, 0x00, 0xf0, 0x63, 0xbc, 0xf1, 0x66, 0x25, 0x3e,
  0xb9, 0xc6, 0x01, 0x3e, 0xaf, 0x67, 0xe8, 0xbd, 0x02, 0xb0, 0x3e, 0xbe,
  0x1d, 0xcf, 0x8b, 0x3c, 0xfa, 0x58, 0x31, 0xbe, 0x6f, 0x0d, 0xa9, 0x3d,
  0xad, 0xd3, 0x82, 0xbc, 0x2f, 0x5a, 0xb2, 0x3e, 0x28, 0xde, 0xc3, 0xbd,
  0xa4, 0xe3, 0x2b, 0x3e, 0xf4, 0xd8, 0x06, 0xbe, 0x54, 0x53, 0x82, 0x3e,
  0x61, 0xc3, 0x63, 0x3e, 0xcc, 0x16, 0xa3, 0xbe, 0xaa, 0x83, 0x80, 0xbe,
  0xa7, 0xef, 0xf8, 0xbd, 0xac, 0x14, 0xe6, 0x3d, 0x27, 0xe2, 0xb5, 0xbe,
  0xa8, 0xae, 0xae, 0xbe, 0x43, 0xbc, 0xd9, 0xbd, 0xa5, 0x3b, 0x01, 0x3e,
  0xe3, 0x0a, 0x71, 0x3c, 0xd5, 0x07, 0x16, 0x3e, 0xa9, 0xc9, 0x6d, 0x3e,
  0x5b, 0xc5, 0x59, 0x3c, 0x48, 0xe6, 0x64, 0x3e, 0xa1, 0xce, 0xa5, 0xbc,
  0xc4, 0x22, 0x29, 0x3e, 0x1c, 0xf8, 0x6e, 0xbc, 0xe8, 0x91, 0x3c, 0xbe,
  0x11, 0xf5, 0xa7, 0x3d, 0x2f, 0x0e, 0x86, 0x3d, 0xc9, 0xac, 0x72, 0x3e,
  0x35, 0xae, 0x5c, 0xbd, 0xc8, 0x41, 0x8f, 0x3e, 0xa4, 0x51, 0x4c, 0x3e,
  0x0c, 0x09, 0x3b, 0xbc, 0x3e, 0x97, 0x68, 0x3e, 0x23, 0xf5, 0x99, 0x3e,
  0xb4, 0x8d, 0xaf, 0xbc, 0x85, 0x33, 0x76, 0x3e, 0x6e, 0xe7, 0x99, 0x3d,
  0xc4, 0xec, 0xf0, 0x3d, 0xc8, 0x6c, 0x5d, 0x3d, 0x46, 0x2c, 0x59, 0x3d,
  0x8b, 0xcf, 0x09, 0xbe, 0x8c, 0x67, 0xf5, 0x3d, 0x3c, 0xda, 0x3f, 0xbe,
  0x3f, 0xf1, 0x81, 0x3a, 0x74, 0x9f, 0x9f, 0xbd, 0x63, 0x05, 0xea, 0x3e,
  0x98, 0x91, 0x31, 0x3e, 0x3d, 0x8b, 0x8d, 0x3e, 0x93, 0x5b, 0xdb, 0x3c,
  0x41, 0xe6, 0x55, 0x3c, 0xe3, 0x0f, 0xf0, 0x3d, 0xe3, 0x8a, 0xad, 0xbc,
  0xce, 0x3b, 0x9d, 0x3e, 0x4a, 0x37, 0x47, 0xbe, 0xba, 0xe2, 0x54, 0x3e,
  0x3d, 0x1a, 0xe3, 0xbc, 0x55, 0x2e, 0x1e, 0x3e, 0xc4, 0xc1, 0xf4, 0x3d,
  0x94, 0x1f, 0x86, 0xbe, 0x69, 0x93, 0x5b, 0xbe, 0x2a, 0x97, 0x8d, 0xbe,
  0x63, 0x3f, 0x60, 0xbe, 0x46, 0xd8, 0x9b, 0xbe, 0xd3, 0x21, 0xe5, 0xbd,
  0xc3, 0xe2, 0x4e, 0x3d, 0x4e, 0x75, 0xa2, 0x3d, 0x08, 0xc2, 0xec, 0xbd,
  0xf7, 0xf7, 0x03, 0x3e, 0x00, 0x70, 0x6a, 0x3e, 0x6c, 0x5a, 0x54, 0x3e,
  0xd3, 0xe5, 0x03, 0x3e, 0xab, 0x20, 0xb2, 0xbe, 0x69, 0x78, 0xc4, 0x3b,
  0x4e, 0x89, 0x5d, 0x3d, 0xfc, 0x5b, 0x1f, 0x3f, 0xb7, 0xce, 0x02, 0x3f,
  0x77, 0xfb, 0x1f, 0x3f, 0xd5, 0x36, 0x14, 0x3f, 0x80, 0x12, 0x27, 0xbe,
  0x25, 0x80, 0x0a, 0xbe, 0x1e, 0x8f, 0xef, 0xbd, 0xa5, 0x44, 0x34, 0xbe,
  0xcd, 0x6c, 0x6e, 0xbd, 0x52, 0x75, 0x8f, 0x3e, 0xb0, 0xce, 0x74, 0xbe,
  0x2c, 0x92, 0x72, 0xbe, 0xd0, 0x7c, 0x78, 0x3e, 0x6e, 0x1e, 0x11, 0x3e,
  0xd9, 0x2f, 0x99, 0x3e, 0x07, 0xcc, 0x6d, 0x3e, 0x1b, 0xee, 0xa3, 0x3e,
  0xd3, 0xcb, 0x36, 0x3e, 0x87, 0x20, 0x10, 0x3e, 0x0f, 0xd4, 0x0b, 0x3d,
  0xab, 0xef, 0x38, 0x3c, 0x92, 0xa9, 0x13, 0x3d, 0xb2, 0x71, 0xa8, 0x3e,
  0xc5, 0xb9, 0xb8, 0x3e, 0x00, 0x04, 0x72, 0x3e, 0x56, 0xc2, 0x8d, 0x3d,
  0x2e, 0x1e, 0x93, 0x3e, 0xc3, 0x26, 0x3d, 0xbe, 0xf6, 0x50, 0x28, 0x3e,
  0x1a, 0xaa, 0x55, 0xbe, 0x4c, 0x28, 0x37, 0xbe, 0xd0, 0x9c, 0x9e, 0xbe,
  0x26, 0xf8, 0x67, 0x3e, 0x53, 0x94, 0x18, 0xbf, 0x44, 0x45, 0x06, 0xbf,
  0x5c, 0x75, 0xf8, 0xbd, 0x4e, 0x48, 0x59, 0x3e, 0x49, 0x78, 0x4e, 0x3e,
  0xdd, 0xbf, 0x9b, 0x3e, 0xe6, 0x69, 0xc8, 0x3e, 0x9c, 0xe8, 0x2c, 0x3e,
  0x1f, 0x6d, 0x97, 0xbd, 0x6e, 0x3b, 0x3d, 0x3d, 0xf8, 0xf0, 0x2d, 0xbd,
  0xd1, 0xca, 0x8c, 0x3d, 0xc2, 0xcf, 0x88, 0x3e, 0xe8, 0xb7, 0x87, 0x3e,
  0xcc, 0xd5, 0xee, 0x3d, 0xa4, 0xb7, 0x31, 0x3e, 0x1b, 0x63, 0x4e, 0x3d,
  0x5b, 0xe2, 0x09, 0x3e, 0x71, 0x2d, 0xcd, 0x3e, 0xdb, 0xc2, 0x95, 0x3e,
  0xb6, 0xa8, 0x76, 0x3e, 0xe7, 0xfb, 0x46, 0x3e, 0x15, 0x11, 0xa3, 0x3e,
  0x3a, 0xe3, 0x11, 0xbd, 0xd0, 0xe2, 0xbb, 0x3d, 0xeb, 0x9c, 0x93, 0x3d,
  0xe5, 0x8b, 0x63, 0x3f, 0x34, 0xeb, 0xd3, 0x3d, 0xdb, 0x07, 0x9e, 0x3e,
  0x91, 0xdf, 0x2e, 0xbc, 0xfd, 0x35, 0x1f, 0xbe, 0xa4, 0x7a, 0xea, 0x3e,
  0xe4, 0x27, 0x29, 0x3e, 0x37, 0xc4, 0x88, 0x3e, 0x3c, 0x6f, 0x28, 0x3e,
  0xa3, 0xa9, 0x30, 0xbe, 0x05, 0x88, 0x10, 0xbe, 0xa8, 0x49, 0x83, 0xbe,
  0xd3, 0xeb, 0x09, 0x3e, 0xd2, 0xf7, 0x3e, 0x3e, 0xb0, 0x5e, 0x41, 0xbd,
  0xe1, 0xfd, 0x6b, 0x3d, 0x5b, 0x91, 0xcf, 0x3e, 0x50, 0xb4, 0x7e, 0x3d,
  0xf3, 0x24, 0xfd, 0x3d, 0xb0, 0x98, 0xe6, 0xba, 0x07, 0xe5, 0xd4, 0x3e,
  0x1f, 0x35, 0x86, 0x3e, 0x0d, 0xc0, 0xaf, 0x3d, 0x32, 0xf0, 0xe0, 0xbd,
  0xc2, 0x73, 0x69, 0x3e, 0xb4, 0x75, 0x17, 0xbe, 0x9e, 0xbf, 0xda, 0xbd,
  0x67, 0xfa, 0x24, 0x3e, 0x15, 0xbe, 0xb3, 0x3e, 0x93, 0x8c, 0x30, 0xbe,
  0xb4, 0x9d, 0xcd, 0x3d, 0x9b, 0xe7, 0x9e, 0x3d, 0x15, 0x3f, 0x0b, 0x3f,
  0x74, 0x99, 0xb1, 0x3e, 0xdc, 0xb6, 0xa1, 0x3e, 0x8b, 0x5f, 0x9e, 0x3d,
  0x73, 0xcb, 0xaa, 0x3e, 0x71, 0x76, 0x03, 0x3e, 0x78, 0xe1, 0x10, 0x3e,
  0xb0, 0xc3, 0x8b, 0x3e, 0x33, 0xe0, 0xb2, 0xbc, 0x49, 0x87, 0x11, 0x3c,
  0xb7, 0xf2, 0x8f, 0xbd, 0x13, 0xa0, 0x16, 0x3e, 0x5f, 0x35, 0x9f, 0x3e,
  0x00, 0xb0, 0xff, 0xff, 0x8e, 0xcb, 0xff, 0xff, 0x04, 0x00, 0x00, 0x00,
  0x00, 0x01, 0x00, 0x00, 0x7c, 0x04, 0x74, 0x3e, 0xad, 0xa3, 0x3e, 0x3e,
  0xaf, 0x3a, 0x48, 0x3e, 0x04, 0x93, 0xbd, 0x3d, 0xef, 0xae, 0x47, 0x3e,
  0x97, 0x9d, 0x03, 0x3e, 0xef, 0x1b, 0x3b, 0x3f, 0x23, 0x80, 0x93, 0x3d,
  0xbf, 0xf9, 0x95, 0x3c, 0x78, 0xc1, 0xd8, 0x3d, 0x4b, 0xeb, 0x21, 0x3e,
  0xc2, 0x65, 0x33, 0x3e, 0x3d, 0x10, 0x8e, 0x3d, 0x95, 0x75, 0x44, 0x3e,
  0x7d, 0x22, 0x68, 0x3e, 0x48, 0x6e, 0x27, 0x3e, 0xfd, 0x65, 0x8f, 0x3f,
  0x3c, 0x9c, 0x97, 0x3f, 0xac, 0x81, 0x85, 0x3f, 0x5f, 0x8a, 0x7a, 0x3f,
  0x84, 0x25, 0x85, 0x3f, 0xc9, 0x9f, 0x5b, 0x3f, 0xa5, 0x42, 0xa8, 0x3f,
  0x89, 0x80, 0x82, 0x3f, 0x99, 0x92, 0x7c, 0x3f, 0x59, 0x12, 0x86, 0x3f,
  0xa6, 0xc9, 0x84, 0x3f, 0xba, 0x14, 0x85, 0x3f, 0xc8, 0x68, 0x83, 0x3f,
  0xa2, 0x77, 0x81, 0x3f, 0x68, 0x6c, 0x6c, 0x3f, 0x1f, 0x4e, 0x85, 0x3f,
  0x8c, 0xa4, 0xaa, 0x3d, 0x5c, 0x3f, 0x1f, 0x3e, 0x2d, 0x59, 0x08, 0xbe,
  0xe1, 0xf8, 0x8f, 0x3d, 0x07, 0x21, 0x02, 0x3e, 0x37, 0x60, 0x04, 0x3e,
  0xe5, 0xad, 0xfa, 0x3e, 0x16, 0xdf, 0xaa, 0xbe, 0x30, 0xb1, 0x99, 0x3c,
  0x39, 0xe3, 0x55, 0x3d, 0x4f, 0x22, 0xc2, 0x3d, 0x2a, 0x3a, 0x08, 0x3e,
  0xad, 0xd9, 0xc5, 0x3c, 0x51, 0xde, 0xe0, 0x3d, 0xaa, 0x68, 0xe3, 0xbc,
  0x94, 0x81, 0x14, 0x3e, 0xbb, 0x1d, 0xf1, 0x3d, 0xb7, 0xb8, 0xac, 0x3d,
  0x6d, 0xa1, 0x36, 0x3d, 0xb2, 0xfa, 0xc2, 0x3d, 0x4d, 0x44, 0x9c, 0xbe,
  0x8e, 0x23, 0x8d, 0x3d, 0x35, 0x42, 0xfd, 0x3e, 0x02, 0x8d, 0x7c, 0x3b,
  0xa5, 0x2a, 0xba, 0x3b, 0xdd, 0x15, 0xa4, 0xbd, 0xa8, 0xd9, 0x6c, 0x3d,
  0xfd, 0xb0, 0x04, 0x3d, 0xbe, 0xcc, 0xd2, 0xbd, 0x0d, 0xb5, 0xae, 0x3d,
  0xc1, 0xb6, 0x64, 0x3e, 0x56, 0x88, 0x8a, 0x3d, 0x10, 0xb1, 0xff, 0xff,
  0x14, 0xb1, 0xff, 0xff, 0x18, 0xb1, 0xff, 0xff, 0x1c, 0xb1, 0xff, 0xff,
  0x20, 0xb1, 0xff, 0xff, 0x24, 0xb1, 0xff, 0xff, 0x28, 0xb1, 0xff, 0xff,
  0x2c, 0xb1, 0xff, 0xff, 0x30, 0xb1, 0xff, 0xff, 0x34, 0xb1, 0xff, 0xff,
  0x38, 0xb1, 0xff, 0xff, 0x3c, 0xb1, 0xff, 0xff, 0x40, 0xb1, 0xff, 0xff,
  0x44, 0xb1, 0xff, 0xff, 0x48, 0xb1, 0xff, 0xff, 0x4c, 0xb1, 0xff, 0xff,
  0x50, 0xb1, 0xff, 0xff, 0x54, 0xb1, 0xff, 0xff, 0x58, 0xb1, 0xff, 0xff,
  0x5c, 0xb1, 0xff, 0xff, 0x60, 0xb1, 0xff, 0xff, 0x64, 0xb1, 0xff, 0xff,
  0x68, 0xb1, 0xff, 0xff, 0x6c, 0xb1, 0xff, 0xff, 0x70, 0xb1, 0xff, 0xff,
  0x74, 0xb1, 0xff, 0xff, 0x78, 0xb1, 0xff, 0xff, 0x7c, 0xb1, 0xff, 0xff,
  0x80, 0xb1, 0xff, 0xff, 0x84, 0xb1, 0xff, 0xff, 0x88, 0xb1, 0xff, 0xff,
  0x8c, 0xb1, 0xff, 0xff, 0x90, 0xb1, 0xff, 0xff, 0x94, 0xb1, 0xff, 0xff,
  0x98, 0xb1, 0xff, 0xff, 0x9c, 0xb1, 0xff, 0xff, 0xa0, 0xb1, 0xff, 0xff,
  0xa4, 0xb1, 0xff, 0xff, 0xa8, 0xb1, 0xff, 0xff, 0xac, 0xb1, 0xff, 0xff,
  0x3a, 0xcd, 0xff, 0xff, 0x04, 0x00, 0x00, 0x00, 0x00, 0x05, 0x00, 0x00,
  0x83, 0x9b, 0x2e, 0xbf, 0x37, 0x07, 0x3d, 0xbe, 0x6e, 0x3e, 0xed, 0xbe,
  0xd6, 0xf5, 0xe0, 0xbd, 0x29, 0x07, 0x5c, 0xbe, 0x02, 0x26, 0x8e, 0xbe,
  0x60, 0x76, 0xb2, 0xbe, 0xc0, 0xb9, 0xbd, 0x3d, 0xc8, 0x63, 0xd2, 0xbe,
  0x9a, 0xe9, 0x12, 0xbe, 0x1d, 0x82, 0xb1, 0xbd, 0x01, 0x8b, 0xfe, 0x3e,
  0xc1, 0x77, 0x8d, 0x3e, 0x65, 0x63, 0x8f, 0xbe, 0xf6, 0xec, 0x1f, 0x3e,
  0x51, 0x44, 0xdf, 0x3e, 0x42, 0xc3, 0x4d, 0x3e, 0x76, 0x67, 0x84, 0xbe,
  0x2d, 0xe4, 0xce, 0xbe, 0xe3, 0x5d, 0x9f, 0x3e, 0x9c, 0x0e, 0xb1, 0x3d,
  0x46, 0xb6, 0x4c, 0xbd, 0x7f, 0x1f, 0xf3, 0xbe, 0xdb, 0x85, 0x1a, 0xbe,
  0xe0, 0x5f, 0x91, 0xbe, 0xcf, 0xe8, 0xaa, 0xbe, 0x70, 0x92, 0x42, 0x3d,
  0xa6, 0x06, 0x31, 0xbe, 0x8e, 0x04, 0x6d, 0x3e, 0x26, 0x8d, 0x33, 0xbe,
  0x61, 0x36, 0x41, 0xbe, 0x3c, 0xb5, 0xa1, 0xbe, 0x61, 0x18, 0x4f, 0x3e,
  0xfa, 0x8e, 0x3c, 0xbe, 0x22, 0x49, 0x1d, 0xbf, 0xbb, 0x2c, 0xbd, 0xbe,
  0xae, 0xc3, 0xe0, 0x3c, 0xdd, 0x4c, 0xcf, 0x3e, 0x7e, 0x32, 0x4d, 0x3e,
  0x21, 0x1f, 0x2c, 0x3e, 0x5b, 0x11, 0x97, 0xbe, 0x4d, 0x1f, 0x29, 0xbd,
  0x2d, 0x73, 0x9b, 0x3e, 0xc3, 0x24, 0xa2, 0xbe, 0xa7, 0xf4, 0x0b, 0xbe,
  0x14, 0x9a, 0x76, 0x3e, 0x1b, 0x88, 0x17, 0xbd, 0xde, 0x39, 0xbe, 0xbe,
  0xee, 0x6f, 0xf3, 0x3d, 0x3f, 0x36, 0x9c, 0xbe, 0x78, 0x65, 0xa3, 0xbe,
  0x48, 0x91, 0x0e, 0x3e, 0x10, 0xa7, 0xed, 0xbd, 0xb7, 0x26, 0xd3, 0x3e,
  0xad, 0x5c, 0x8c, 0xbe, 0x51, 0xe0, 0x84, 0xbe, 0x4c, 0x3f, 0xa1, 0x3e,
  0x7e, 0x6a, 0x94, 0x3e, 0xed, 0xe8, 0x50, 0x3e, 0x7b, 0x55, 0x05, 0xbf,
  0x21, 0x50, 0x94, 0xbe, 0xce, 0x2d, 0x10, 0xbe, 0x35, 0xdc, 0xf7, 0x3e,
  0xc6, 0x8c, 0x75, 0xbe, 0xca, 0x9e, 0x29, 0xbf, 0x2c, 0x83, 0x5a, 0x3d,
  0x38, 0x9e, 0xb6, 0xbe, 0xeb, 0xf2, 0x64, 0xbe, 0x6f, 0x60, 0xa0, 0x3d,
  0xb1, 0x8f, 0xb0, 0x3e, 0x21, 0xb0, 0xe1, 0xbe, 0xa1, 0x8a, 0xe8, 0x3e,
  0x8b, 0xe2, 0x3d, 0xbf, 0xfc, 0x9d, 0xe4, 0xbe, 0x44, 0xa0, 0xb6, 0x3e,
  0xcd, 0x25, 0x1c, 0x3f, 0x91, 0x7a, 0x25, 0x3d, 0xfc, 0xab, 0x06, 0x3f,
  0x32, 0x66, 0x85, 0xbe, 0x4a, 0x0b, 0x8a, 0xbe, 0x41, 0x8e, 0x3e, 0x3f,
  0x00, 0x6f, 0x3e, 0x3f, 0x9e, 0xbc, 0x16, 0x3f, 0x2b, 0x0a, 0x3f, 0x3e,
  0x5c, 0xa1, 0xb6, 0x3e, 0xb6, 0x74, 0x35, 0xbc, 0xbd, 0x87, 0x0d, 0xbf,
  0x2b, 0xf9, 0xfb, 0xbd, 0x70, 0x83, 0x8f, 0xbe, 0xc4, 0x29, 0x86, 0x3e,
  0x9b, 0x6a, 0x7c, 0xbe, 0x34, 0x5e, 0x41, 0xbd, 0x6e, 0x5f, 0xa0, 0x3e,
  0xd6, 0x9b, 0x96, 0xbe, 0x85, 0xe3, 0xfb, 0x3e, 0xa9, 0x3c, 0xe6, 0xbe,
  0xe6, 0xbb, 0xb3, 0xbe, 0xaa, 0xd6, 0x08, 0xbf, 0xda, 0x74, 0xb6, 0xbe,
  0xcb, 0xde, 0x2a, 0x3e, 0xd3, 0xe1, 0x16, 0xbd, 0xb8, 0x8f, 0xbd, 0x3c,
  0xbf, 0xd8, 0xaa, 0xbe, 0xb6, 0xdd, 0x21, 0x3f, 0x25, 0x15, 0xeb, 0xbe,
  0x3e, 0x04, 0x02, 0xbf, 0x72, 0x5b, 0x31, 0x3f, 0xaf, 0x5d, 0x0b, 0x3f,
  0x54, 0x43, 0xc1, 0x3d, 0x2f, 0xa3, 0x7c, 0x3d, 0xc9, 0xf7, 0x51, 0xbe,
  0xfe, 0x1d, 0x0e, 0x3d, 0x32, 0x42, 0x9d, 0xbf, 0x1b, 0x8c, 0x21, 0xbf,
  0x71, 0x17, 0xab, 0xbe, 0x18, 0x6a, 0xf5, 0x3e, 0x59, 0x18, 0x23, 0xbf,
  0xfd, 0xcf, 0x31, 0xbf, 0x97, 0x6c, 0xa3, 0x3d, 0x45, 0x8d, 0x26, 0xbe,
  0x97, 0xba, 0xa3, 0xbe, 0x62, 0x42, 0x2e, 0xbd, 0xd4, 0xa7, 0xae, 0x3e,
  0x78, 0x0d, 0x15, 0x3f, 0x0b, 0xa8, 0x1d, 0x3f, 0x91, 0x1d, 0x4b, 0xbe,
  0xd3, 0xfc, 0xd3, 0x3e, 0x67, 0x7c, 0x50, 0x3f, 0xd5, 0xf0, 0xed, 0x3e,
  0x19, 0x8c, 0xd1, 0xbd, 0x7b, 0x56, 0x4e, 0xbe, 0x43, 0x46, 0xff, 0xbe,
  0x75, 0x89, 0x4a, 0xbe, 0xdf, 0x62, 0x64, 0x3e, 0xd5, 0x9a, 0x33, 0x3e,
  0x9f, 0xb7, 0xb6, 0xbd, 0x3e, 0xb3, 0xc7, 0xbe, 0x30, 0x6a, 0x01, 0x3e,
  0x53, 0xdf, 0x25, 0xbd, 0x6b, 0x87, 0x0a, 0xbf, 0x1f, 0x9c, 0x18, 0xbe,
  0x9a, 0x67, 0x69, 0x3e, 0x0b, 0xb3, 0xc9, 0x3e, 0x6a, 0x4f, 0x00, 0xbf,
  0x30, 0x28, 0x20, 0xbf, 0x73, 0x06, 0x21, 0xbf, 0xc4, 0x66, 0xba, 0xbe,
  0x05, 0xf7, 0xc5, 0xbd, 0xdd, 0x6c, 0x4e, 0x3e, 0xaa, 0x1e, 0x0c, 0xbf,
  0x72, 0x95, 0x2e, 0xbe, 0x63, 0xb0, 0x17, 0xbd, 0x57, 0x0a, 0x59, 0x3d,
  0x6e, 0xa5, 0x87, 0xbe, 0x38, 0xfc, 0x3b, 0x3e, 0x35, 0x39, 0x12, 0x3d,
  0xa3, 0x54, 0x13, 0xbe, 0x75, 0x20, 0x10, 0xbf, 0x26, 0xed, 0x1f, 0x3c,
  0xec, 0x3b, 0x00, 0x3f, 0xe1, 0x51, 0xf5, 0x3d, 0x36, 0x70, 0x20, 0xbe,
  0x61, 0x5b, 0x96, 0xbe, 0x04, 0xa2, 0x9d, 0xbd, 0x36, 0x3f, 0xa0, 0x3d,
  0x43, 0x6b, 0x37, 0x3f, 0xd7, 0x19, 0xb7, 0xbe, 0x19, 0xc2, 0x92, 0xbe,
  0x99, 0x13, 0x8f, 0x3d, 0x8a, 0x3a, 0xca, 0xbe, 0xfd, 0x25, 0x94, 0xbe,
  0x1a, 0x8e, 0x4c, 0xbf, 0x29, 0xb4, 0x92, 0xbd, 0x37, 0xd5, 0xbc, 0x3e,
  0x81, 0x0e, 0x0b, 0x3f, 0xc4, 0x06, 0x3f, 0xbe, 0x04, 0x84, 0x6e, 0xbf,
  0xe6, 0x85, 0xb6, 0xbe, 0xf3, 0x59, 0x11, 0xbf, 0x39, 0xcf, 0xe1, 0x3e,
  0xd7, 0x9f, 0xdb, 0x3e, 0xe4, 0x42, 0xc3, 0xbe, 0x72, 0x58, 0x2b, 0x3e,
  0xaf, 0x21, 0x1a, 0x3f, 0x40, 0x8e, 0x9c, 0xbe, 0x73, 0x1e, 0xd0, 0xbe,
  0x52, 0x30, 0x9b, 0x3e, 0x52, 0x72, 0x78, 0x3e, 0xfb, 0xca, 0x10, 0xbe,
  0xd3, 0xa4, 0x84, 0x3d, 0x35, 0xb7, 0x2b, 0x3e, 0xfd, 0x1b, 0xc1, 0x3e,
  0x96, 0x7f, 0xcf, 0x3d, 0x84, 0x46, 0x61, 0x3d, 0x49, 0x3f, 0xaa, 0xbe,
  0x9a, 0x8f, 0xc3, 0x3e, 0xe3, 0x7d, 0x45, 0xbe, 0xe3, 0x59, 0x7a, 0xbe,
  0xaf, 0x0f, 0x18, 0x3e, 0xb6, 0x40, 0x80, 0x3e, 0xee, 0x8f, 0x9e, 0xbe,
  0xf3, 0x83, 0x9c, 0x3e, 0xac, 0xd9, 0x97, 0xbe, 0xa4, 0x48, 0x76, 0x3e,
  0x38, 0x28, 0xcc, 0x3c, 0x0b, 0x4f, 0xb2, 0xbe, 0x06, 0xa6, 0xbb, 0x3e,
  0xe7, 0x65, 0x71, 0x3e, 0x76, 0xe0, 0x37, 0x3b, 0xa5, 0x9b, 0x49, 0xbe,
  0x89, 0xde, 0xe3, 0xbc, 0x8e, 0x2e, 0xc4, 0x3e, 0x74, 0x1c, 0x85, 0xbd,
  0x8a, 0x51, 0xe3, 0x3b, 0xac, 0x27, 0x83, 0xbd, 0x5a, 0x26, 0x6c, 0x3d,
  0x9a, 0xcc, 0xcf, 0xbe, 0xb7, 0xaf, 0x63, 0x3e, 0x4a, 0xcd, 0xb0, 0x3e,
  0x2f, 0x02, 0x60, 0x3e, 0x89, 0x3a, 0x03, 0x3f, 0x44, 0x95, 0x2a, 0xbe,
  0x5c, 0x44, 0xea, 0x3e, 0x5d, 0x36, 0xe3, 0x3d, 0x40, 0xb2, 0x67, 0xbe,
  0xa6, 0xc3, 0x83, 0xbe, 0x62, 0x9f, 0xb0, 0xbe, 0xd9, 0xe2, 0xce, 0x3e,
  0x24, 0x7c, 0x97, 0x3e, 0x1f, 0x4b, 0xb7, 0xbe, 0xad, 0xf3, 0xe6, 0xbc,
  0x36, 0xb9, 0x9b, 0x3d, 0x4a, 0x6e, 0xb0, 0xbe, 0x8f, 0xf7, 0x2a, 0xbc,
  0xf9, 0xfc, 0xe0, 0xbd, 0x73, 0xb5, 0x1b, 0x3e, 0x44, 0x48, 0xb4, 0x3e,
  0x61, 0x51, 0x9f, 0xbe, 0xe7, 0x5c, 0x1f, 0xbe, 0x46, 0x05, 0x6a, 0x3e,
  0xe1, 0xc0, 0x85, 0x3e, 0xca, 0x6f, 0x88, 0x3e, 0x35, 0x45, 0xae, 0x3e,
  0x9c, 0x46, 0xd2, 0x3e, 0x39, 0xf2, 0x94, 0xbd, 0xa5, 0x5c, 0x03, 0x3e,
  0x63, 0x01, 0xa8, 0x3e, 0x6a, 0x76, 0xc8, 0xbb, 0xcb, 0x49, 0x70, 0x3e,
  0x53, 0xfa, 0x34, 0x3d, 0x52, 0x6a, 0xe6, 0x3e, 0x26, 0x3f, 0xba, 0x3c,
  0x96, 0x31, 0x92, 0x3e, 0xdf, 0x0b, 0x61, 0xbe, 0x49, 0xeb, 0x3f, 0x3e,
  0x67, 0x33, 0xa6, 0x3e, 0xcc, 0x45, 0xc0, 0xbe, 0xa3, 0xd8, 0xa3, 0xbd,
  0xea, 0xd2, 0xae, 0x3e, 0x6e, 0x12, 0xd5, 0x3e, 0xd5, 0x38, 0x82, 0x3e,
  0xea, 0xcf, 0x9a, 0xbe, 0x7c, 0xf7, 0xb3, 0x3e, 0x83, 0xe2, 0x23, 0xbe,
  0xc9, 0xf3, 0x22, 0xbe, 0x45, 0xb8, 0xeb, 0x3d, 0x40, 0x3c, 0x42, 0x3e,
  0xa9, 0xba, 0x6f, 0xbe, 0x65, 0x90, 0x75, 0x3e, 0x92, 0xa2, 0x6c, 0x3d,
  0xa7, 0xfe, 0xcf, 0x3e, 0x15, 0x68, 0xaa, 0xbd, 0x99, 0xf4, 0xce, 0xbe,
  0x0b, 0x9e, 0x97, 0xbe, 0x69, 0x42, 0x13, 0x3e, 0xf6, 0xbf, 0x44, 0x3d,
  0x73, 0x6d, 0xd4, 0x3e, 0xb1, 0x95, 0x27, 0x3c, 0xb4, 0xe4, 0x9c, 0xbe,
  0x6c, 0x11, 0x40, 0xbd, 0x54, 0xf7, 0x49, 0x3e, 0x11, 0x19, 0xcb, 0x3e,
  0xd8, 0xf1, 0x36, 0x3e, 0xc3, 0xd7, 0xa1, 0xbe, 0xd1, 0x3d, 0x9f, 0x3e,
  0x0f, 0x37, 0xc2, 0xbe, 0xfa, 0xf1, 0xff, 0xbc, 0x7e, 0xfe, 0xd2, 0xbe,
  0x09, 0x83, 0xab, 0x3e, 0xe5, 0xd7, 0xa1, 0xbe, 0xbe, 0x51, 0xdd, 0xbe,
  0x16, 0xfb, 0x24, 0x3d, 0x99, 0x31, 0x3f, 0x3e, 0x07, 0x51, 0x38, 0xbe,
  0x64, 0xe0, 0x8b, 0x3e, 0x48, 0x42, 0xea, 0xba, 0x85, 0xdf, 0xdf, 0x3c,
  0xe3, 0x0d, 0x97, 0xbe, 0x7d, 0x28, 0x8e, 0x3e, 0xdb, 0x7c, 0x54, 0xbd,
  0x91, 0xf5, 0x82, 0xbe, 0x16, 0xa1, 0x9f, 0x3e, 0x7d, 0x92, 0x8a, 0xbd,
  0x33, 0xaf, 0xbb, 0xbe, 0xdf, 0x5c, 0xd1, 0xbe, 0xe2, 0x86, 0x41, 0x3e,
  0xb7, 0x6b, 0xc8, 0xbe, 0x8f, 0x19, 0xfe, 0xbd, 0x56, 0x78, 0xbf, 0x3e,
  0x99, 0x8a, 0xb8, 0xbe, 0x3c, 0x3e, 0xb1, 0x3d, 0xa5, 0x36, 0x65, 0x3e,
  0xf7, 0x44, 0x7d, 0xbe, 0xc0, 0xa7, 0x2c, 0x3e, 0xc1, 0xa3, 0x24, 0x3c,
  0x80, 0x16, 0x9b, 0x3e, 0xe3, 0xf1, 0x8a, 0xbe, 0x12, 0xff, 0x66, 0x3d,
  0x53, 0x74, 0x74, 0x3e, 0x70, 0x68, 0xac, 0xbc, 0x46, 0xd2, 0xff, 0xff,
  0x04, 0x00, 0x00, 0x00, 0x40, 0x01, 0x00, 0x00, 0x26, 0x7c, 0x33, 0x3f,
  0x94, 0x5d, 0xcf, 0x3e, 0x47, 0x35, 0xa4, 0xbe, 0xdc, 0xae, 0x5a, 0xbf,
  0xa5, 0xfd, 0x16, 0xbf, 0xb8, 0x46, 0x57, 0x3e, 0x1c, 0xb5, 0x86, 0xbd,
  0x94, 0x42, 0xb6, 0x3e, 0x54, 0x20, 0x04, 0xbf, 0x47, 0xd3, 0xc4, 0x3e,
  0xb5, 0xf2, 0x46, 0xbf, 0xcd, 0xf5, 0x9d, 0x3e, 0x77, 0xd1, 0xba, 0xbe,
  0x81, 0xe9, 0x93, 0x3e, 0xe7, 0x77, 0x86, 0xbf, 0xba, 0xe3, 0x4f, 0xbe,
  0x71, 0x31, 0xd1, 0x3e, 0x64, 0x3e, 0x37, 0x3f, 0x42, 0x80, 0x18, 0x3f,
  0xb7, 0x68, 0x7c, 0xbe, 0x93, 0xa1, 0xff, 0xbe, 0xe9, 0x78, 0x29, 0x3f,
  0x87, 0x84, 0xed, 0xbe, 0x96, 0x1d, 0x9d, 0xbd, 0x13, 0xf8, 0x64, 0xbe,
  0x7f, 0xb9, 0x57, 0xbe, 0xe3, 0x21, 0xf6, 0xbe, 0x3f, 0xc8, 0xe5, 0x3e,
  0xa2, 0xe7, 0xcc, 0x3e, 0x9b, 0x56, 0x4f, 0x3f, 0x62, 0xd5, 0x99, 0xbf,
  0xf0, 0x65, 0xa0, 0x3d, 0x0f, 0x98, 0x9d, 0x3f, 0xca, 0xbe, 0xdd, 0x3e,
  0x21, 0x3f, 0x9f, 0x3d, 0xd1, 0x68, 0x3a, 0x3e, 0xdf, 0x8f, 0xbe, 0x3e,
  0x81, 0x90, 0x8a, 0x3e, 0x82, 0xd3, 0xf4, 0xbd, 0xda, 0x0b, 0x6b, 0x3e,
  0xbb, 0x97, 0x0f, 0x3f, 0x00, 0xb9, 0x41, 0x3f, 0x86, 0xad, 0x70, 0xbf,
  0x6b, 0x2d, 0x12, 0xbf, 0xec, 0x51, 0x5b, 0xbf, 0xd6, 0x78, 0x50, 0xbf,
  0xc0, 0xdb, 0x7f, 0x3f, 0xe2, 0x74, 0x7d, 0xbf, 0xed, 0x89, 0x84, 0xbf,
  0xee, 0x9a, 0x59, 0xbf, 0x8b, 0x8f, 0x37, 0xbf, 0x89, 0xc3, 0x6d, 0x3e,
  0x0b, 0x86, 0x24, 0xbe, 0x60, 0xa2, 0x31, 0xbf, 0x94, 0xb1, 0x82, 0xbe,
  0x41, 0x02, 0xc4, 0x3e, 0xf7, 0x9e, 0x30, 0xbf, 0xcc, 0xdb, 0x86, 0xbe,
  0xde, 0x22, 0xfc, 0x3e, 0x57, 0x18, 0x66, 0x3f, 0x15, 0x43, 0xc5, 0x3d,
  0x23, 0xe3, 0x34, 0xbf, 0x6f, 0x47, 0xd0, 0xbe, 0x14, 0x90, 0x58, 0x3f,
  0x90, 0x17, 0x60, 0x3e, 0x6e, 0x36, 0x46, 0x3f, 0x55, 0x71, 0x34, 0xbf,
  0x4a, 0x0a, 0x77, 0xbe, 0x19, 0x64, 0x2a, 0xbf, 0x7f, 0x2b, 0xf7, 0x3e,
  0x9c, 0xfe, 0x1d, 0xbf, 0x4f, 0xb4, 0xc3, 0x3d, 0x86, 0x73, 0x2f, 0xbf,
  0x37, 0xf7, 0x22, 0xbf, 0x45, 0xc7, 0xde, 0x3e, 0xc5, 0x7c, 0xf4, 0xbd,
  0xf2, 0x4b, 0x2d, 0x3e, 0xe5, 0x5c, 0x82, 0xbd, 0x50, 0x7e, 0xb7, 0x3d,
  0xea, 0xde, 0x18, 0xbf, 0x92, 0xd3, 0xff, 0xff, 0x04, 0x00, 0x00, 0x00,
  0x00, 0x05, 0x00, 0x00, 0x43, 0x71, 0xae, 0x3e, 0xd5, 0xea, 0x2a, 0xbd,
  0xb6, 0xc1, 0xa6, 0x3e, 0x10, 0xa9, 0x04, 0xbe, 0x91, 0x8f, 0xbf, 0xbc,
  0x31, 0xd3, 0x5b, 0x3d, 0xc2, 0x68, 0x02, 0x3f, 0x92, 0x8d, 0xa0, 0x3e,
  0xdb, 0x96, 0x8f, 0x3e, 0xbf, 0x5d, 0x0b, 0x3e, 0x1f, 0x89, 0x34, 0xbd,
  0xff, 0xe0, 0xda, 0x3d, 0x22, 0xa5, 0xc7, 0x3d, 0x63, 0x51, 0xbd, 0xbe,
  0xaf, 0x91, 0x86, 0x3d, 0xd5, 0x15, 0x00, 0x3e, 0xe4, 0xcb, 0xa3, 0xbf,
  0xdf, 0xff, 0x63, 0xbf, 0x33, 0xed, 0xe4, 0xbc, 0x97, 0xdd, 0xf1, 0x3d,
  0x8d, 0xf1, 0xec, 0x3e, 0x4e, 0xa4, 0x69, 0xbe, 0xc3, 0xb7, 0x86, 0x3d,
  0x8f, 0x5e, 0x4c, 0x3f, 0x67, 0xcf, 0x92, 0xbc, 0x0c, 0xd9, 0xdb, 0x3e,
  0xb5, 0x9b, 0xea, 0xbe, 0x11, 0x75, 0x4e, 0x3f, 0x9d, 0xf9, 0x06, 0xbe,
  0x76, 0x09, 0x60, 0x3d, 0x7e, 0x9f, 0x69, 0x3d, 0x68, 0x5f, 0x60, 0x3f,
  0x33, 0x26, 0x5b, 0xbf, 0x9a, 0x81, 0x23, 0xbf, 0x85, 0xea, 0x98, 0x3e,
  0x89, 0xca, 0x7c, 0x3e, 0x03, 0x77, 0xc3, 0x3d, 0xc0, 0x25, 0x56, 0xbe,
  0x79, 0xba, 0xdd, 0x3e, 0x99, 0xa6, 0xa0, 0x3d, 0x1b, 0xfa, 0xa0, 0xbe,
  0x76, 0x06, 0x8f, 0xbd, 0x58, 0x98, 0x8b, 0x3e, 0x16, 0x0c, 0x37, 0x3f,
  0xe2, 0xee, 0xf0, 0xbe, 0xa9, 0x4c, 0x13, 0x3e, 0x99, 0x8c, 0x90, 0x3e,
  0x37, 0xd2, 0xb3, 0x3e, 0x31, 0x19, 0xb7, 0xbf, 0x4e, 0xee, 0x8e, 0xbf,
  0xc8, 0x94, 0x6b, 0x3e, 0x29, 0x2d, 0xdf, 0xbd, 0xe8, 0xff, 0xf3, 0x3e,
  0x7b, 0xfc, 0x33, 0xbf, 0xc1, 0x8e, 0x43, 0x3f, 0xfe, 0x0a, 0x8d, 0x3f,
  0x60, 0x2a, 0x8f, 0x3e, 0x6a, 0x2d, 0x70, 0xbd, 0xd1, 0xc2, 0xc7, 0x3d,
  0x2a, 0x1a, 0x72, 0x3f, 0x13, 0xa0, 0x2d, 0x3e, 0x47, 0x61, 0x8e, 0x3d,
  0x0d, 0xe0, 0xf7, 0x3d, 0xfa, 0x06, 0xa6, 0x3e, 0x91, 0x3d, 0x72, 0x3d,
  0x61, 0x8c, 0x5f, 0x3d, 0x35, 0x6c, 0x2e, 0x3e, 0x53, 0xb8, 0xdf, 0x3e,
  0x10, 0xa4, 0x0c, 0x3e, 0xae, 0x5b, 0xae, 0xbd, 0x1a, 0x2a, 0x81, 0xbe,
  0x3a, 0xbb, 0x08, 0x3f, 0x85, 0x96, 0xbd, 0xbe, 0x92, 0x6e, 0x3d, 0xbe,
  0xfd, 0x10, 0x34, 0xbd, 0xd4, 0xd0, 0x95, 0x3e, 0x89, 0xfa, 0x80, 0xbe,
  0xe2, 0xe6, 0x69, 0x3e, 0x73, 0x53, 0x3d, 0x3e, 0x5d, 0x3d, 0xb1, 0x3e,
  0x76, 0xbd, 0x88, 0xbf, 0xc2, 0xa3, 0x43, 0xbf, 0x08, 0xae, 0x31, 0x3f,
  0x17, 0xae, 0x9d, 0xbc, 0xfc, 0xa0, 0x7e, 0x3f, 0x7b, 0x5b, 0x45, 0xbf,
  0x5f, 0x40, 0x2d, 0x3f, 0x4d, 0xe8, 0xa9, 0x3f, 0xdd, 0x5f, 0x6a, 0xbd,
  0x52, 0xf4, 0xfc, 0x3e, 0x42, 0xba, 0x57, 0xbe, 0x1c, 0x66, 0x4e, 0x3f,
  0x46, 0x8b, 0xc4, 0xbe, 0x0b, 0x05, 0xf6, 0x3d, 0x67, 0x97, 0x85, 0xbe,
  0xf0, 0x8b, 0x73, 0x3f, 0x60, 0xbf, 0x0f, 0x3e, 0x80, 0x24, 0xf4, 0xbc,
  0x07, 0x6a, 0x98, 0x3c, 0x4e, 0x4f, 0xf1, 0x3d, 0xe0, 0x91, 0x39, 0x3e,
  0xf9, 0x5a, 0xb1, 0xbe, 0x70, 0xd1, 0x0d, 0x3f, 0x75, 0x0f, 0xd3, 0x3e,
  0x14, 0x0c, 0xc8, 0xbe, 0x64, 0xaa, 0xa6, 0xbd, 0xed, 0x5b, 0xfb, 0x3d,
  0xce, 0xb0, 0xf8, 0x3e, 0x01, 0x60, 0x88, 0xbe, 0x6f, 0x7e, 0xb0, 0x3d,
  0xf2, 0x36, 0xb9, 0x3e, 0x45, 0x5f, 0x4f, 0xbe, 0x56, 0xf2, 0xad, 0xbf,
  0x3a, 0x39, 0x63, 0xbf, 0x74, 0xc6, 0x73, 0xbe, 0x78, 0x6e, 0xd9, 0x3e,
  0x2b, 0x24, 0x05, 0x3f, 0xfb, 0x96, 0xf6, 0xbe, 0xd2, 0x6d, 0x9c, 0x3e,
  0x96, 0x63, 0x64, 0x3f, 0xcf, 0x35, 0x45, 0x3e, 0x24, 0x19, 0xff, 0x3c,
  0x09, 0x7f, 0x7f, 0xbd, 0xdc, 0x75, 0x72, 0x3f, 0xdf, 0x53, 0x31, 0xbf,
  0x6b, 0x63, 0x43, 0xbe, 0x51, 0xb9, 0xe9, 0xbd, 0x98, 0xf6, 0x88, 0x3f,
  0x56, 0x7c, 0x68, 0xbe, 0x60, 0x70, 0xa5, 0xbf, 0x47, 0x41, 0x1f, 0x3f,
  0x8a, 0x59, 0xca, 0x3e, 0x70, 0xa0, 0x40, 0x3f, 0x05, 0x8c, 0x90, 0xbe,
  0x8b, 0x7d, 0xca, 0x3e, 0xb3, 0x6f, 0x48, 0x3f, 0x75, 0x78, 0xef, 0x3e,
  0x63, 0xc8, 0x40, 0x3f, 0x24, 0x54, 0x35, 0xbe, 0xbc, 0xcf, 0xc9, 0x3e,
  0x8c, 0x8a, 0x53, 0xbf, 0x4a, 0xcf, 0x8f, 0xbf, 0x59, 0xd3, 0x76, 0x3f,
  0x4a, 0x02, 0x2e, 0x3f, 0x43, 0x79, 0x84, 0xbf, 0x04, 0x9e, 0xd8, 0xbe,
  0x31, 0x05, 0x72, 0x3e, 0x67, 0x8e, 0x47, 0x3f, 0x60, 0xcf, 0xbb, 0x3e,
  0x74, 0x1c, 0xb0, 0xbe, 0x04, 0x7b, 0xe6, 0x3d, 0xd3, 0x93, 0xa0, 0x3e,
  0x5b, 0x7b, 0x1f, 0xbe, 0x09, 0x98, 0x46, 0x3e, 0x6d, 0x40, 0x6d, 0xbe,
  0x57, 0xf7, 0xf0, 0x3e, 0x87, 0x92, 0x88, 0xbc, 0x85, 0x6d, 0x8c, 0xbf,
  0x1f, 0x9f, 0x9d, 0xbe, 0x7e, 0x97, 0x86, 0x3e, 0x3a, 0x6b, 0x8b, 0xbf,
  0x38, 0xb0, 0xbe, 0xbf, 0x30, 0x37, 0x86, 0x3e, 0x1b, 0xf8, 0x49, 0x3f,
  0x75, 0x22, 0xe8, 0x3e, 0x10, 0xbb, 0x85, 0xbf, 0xd1, 0x3d, 0x83, 0x3f,
  0x3e, 0x4f, 0x87, 0x3f, 0x6e, 0x78, 0x94, 0x3d, 0x71, 0x50, 0x2a, 0x3d,
  0x1f, 0x90, 0x58, 0x3e, 0xfe, 0xa4, 0x08, 0x3f, 0xfd, 0x6a, 0x01, 0xbf,
  0xc5, 0xcd, 0x47, 0xbf, 0x15, 0x2b, 0xa7, 0x3f, 0x9c, 0x77, 0x8b, 0x3f,
  0xdb, 0x78, 0x4f, 0xbf, 0x83, 0x65, 0x8c, 0xbf, 0x5a, 0xd7, 0x5c, 0xbe,
  0xe9, 0xda, 0x38, 0x3f, 0xf2, 0x09, 0xeb, 0x3e, 0x35, 0xff, 0xb1, 0xbe,
  0x23, 0x05, 0x88, 0x3e, 0x67, 0x26, 0x05, 0x3f, 0x4b, 0x1a, 0xfd, 0x3e,
  0x68, 0xf6, 0x52, 0x3e, 0xcf, 0x35, 0x4f, 0xbe, 0x10, 0xfd, 0x15, 0x3f,
  0x9b, 0xa9, 0x0b, 0x3e, 0x18, 0xf5, 0x8a, 0xbf, 0x64, 0xe6, 0xae, 0xbd,
  0x0b, 0xf4, 0x42, 0x3f, 0xc0, 0x16, 0x6d, 0xbd, 0x46, 0x0e, 0x13, 0xbe,
  0xe5, 0xa9, 0x02, 0x3f, 0x62, 0xe8, 0x3a, 0x3f, 0xc8, 0x47, 0xdf, 0x3e,
  0x99, 0x06, 0x46, 0xbf, 0xde, 0xab, 0x9b, 0x3e, 0xf0, 0x60, 0x82, 0x3e,
  0xea, 0x5e, 0xaa, 0x3e, 0x36, 0x45, 0x7d, 0x3d, 0xab, 0xf6, 0x6c, 0xbf,
  0x20, 0x0b, 0xb9, 0x3e, 0xf0, 0x8d, 0x3e, 0xbf, 0x05, 0x7c, 0x78, 0xbf,
  0x64, 0x70, 0x43, 0x3f, 0x87, 0x44, 0xf2, 0x3d, 0x31, 0x18, 0x30, 0xbf,
  0x7b, 0x76, 0xb1, 0xbe, 0x87, 0x0e, 0x42, 0x3f, 0x68, 0x45, 0x66, 0x3e,
  0xfa, 0x31, 0xc8, 0x3e, 0x26, 0xee, 0x1f, 0xbf, 0x65, 0x3d, 0x97, 0x3e,
  0x17, 0x84, 0x81, 0x3f, 0x62, 0x7d, 0x16, 0x3f, 0xb2, 0x12, 0x0d, 0x3f,
  0xdc, 0xf4, 0x56, 0xbf, 0x26, 0xcd, 0x47, 0x3f, 0x78, 0xd7, 0x81, 0xbf,
  0xa6, 0x7b, 0x76, 0xbe, 0xe1, 0xd2, 0x82, 0xbd, 0x56, 0xda, 0x8b, 0x3f,
  0xe5, 0x89, 0x16, 0xbe, 0x53, 0xc8, 0x2c, 0xbf, 0x73, 0x82, 0x21, 0x3e,
  0x39, 0x65, 0x81, 0x3e, 0xe6, 0xf2, 0xdd, 0x3e, 0x2d, 0x5e, 0x5b, 0xbf,
  0x07, 0x14, 0x1f, 0x3f, 0x1e, 0x22, 0xc5, 0x3e, 0x09, 0x5c, 0x49, 0x3f,
  0x94, 0x70, 0x44, 0x3f, 0x61, 0x48, 0x5a, 0xbf, 0x12, 0xdd, 0x11, 0x3e,
  0xa3, 0x07, 0x0a, 0xbf, 0x90, 0xf9, 0xa7, 0xbe, 0x8a, 0x3a, 0xee, 0x3e,
  0xef, 0x29, 0xc2, 0x3e, 0x6d, 0xed, 0x5f, 0xbf, 0x41, 0xf2, 0xe5, 0xbe,
  0x6a, 0x78, 0x05, 0x3f, 0x2b, 0x5b, 0x60, 0x3e, 0x10, 0x81, 0x48, 0x3f,
  0xaf, 0x4b, 0x37, 0xbf, 0x5a, 0x65, 0x1b, 0x3f, 0x6b, 0x41, 0x10, 0x3f,
  0x84, 0x29, 0x50, 0x3f, 0xf3, 0x9f, 0x14, 0x3f, 0xe3, 0xb6, 0x7b, 0xbf,
  0x12, 0x01, 0xb3, 0x3e, 0x29, 0xc7, 0x68, 0xbf, 0xd4, 0x1f, 0x19, 0xbf,
  0xcd, 0x78, 0x0b, 0xbe, 0x3f, 0x47, 0xe0, 0x3e, 0x17, 0x31, 0xe4, 0xbc,
  0x95, 0x17, 0x41, 0x3e, 0x5b, 0x67, 0xee, 0x3d, 0x78, 0xb1, 0x69, 0x3e,
  0x9f, 0x4b, 0x9d, 0x3e, 0xe6, 0x9f, 0x5d, 0xbe, 0xe5, 0x42, 0xa4, 0x3e,
  0xfc, 0x86, 0xc3, 0x3e, 0xed, 0xed, 0x7e, 0xbe, 0x5a, 0xd8, 0xe4, 0xbc,
  0x0f, 0x71, 0x85, 0xbe, 0xa4, 0x7a, 0x09, 0xbe, 0x62, 0x24, 0xab, 0x3e,
  0xdc, 0xae, 0x3e, 0x3d, 0x34, 0xbe, 0x86, 0x3b, 0x2d, 0xfa, 0xc7, 0x3e,
  0x52, 0xe3, 0xa3, 0xbe, 0x86, 0xf9, 0xde, 0x3d, 0xb7, 0x62, 0x4b, 0xbe,
  0x07, 0x15, 0xbd, 0x3e, 0x59, 0x27, 0xb8, 0xbe, 0xbc, 0x3b, 0x99, 0x3e,
  0x75, 0xec, 0xe8, 0xbd, 0x4c, 0xbb, 0x86, 0xbe, 0x3f, 0x4e, 0x91, 0x3e,
  0x0e, 0x5c, 0x8f, 0xbd, 0x65, 0x69, 0xed, 0x3c, 0x86, 0x58, 0x35, 0x3d,
  0x96, 0xfb, 0xc1, 0x3e, 0xe5, 0x80, 0x09, 0xbe, 0x52, 0x94, 0xbf, 0xbd,
  0xe1, 0x88, 0x3b, 0x3e, 0x3c, 0x5b, 0x11, 0x3e, 0x69, 0x33, 0x96, 0x3e,
  0x08, 0x29, 0xce, 0xbd, 0x44, 0x34, 0xde, 0x3e, 0x4e, 0x6b, 0x7a, 0x3e,
  0x4b, 0x9a, 0xc0, 0x3d, 0xb4, 0x73, 0x52, 0x3e, 0x63, 0xb7, 0x4f, 0x3e,
  0x02, 0xa8, 0x2f, 0x3e, 0x5c, 0x9a, 0x4a, 0x3d, 0x5d, 0xbe, 0x0c, 0x3d,
  0x77, 0x6a, 0x80, 0xbd, 0xe9, 0x2a, 0x27, 0x3d, 0x27, 0x9f, 0xa0, 0xbb,
  0xc7, 0x1c, 0x98, 0xbb, 0xf0, 0x69, 0xac, 0xba, 0xc7, 0x37, 0xd2, 0xbe,
  0x97, 0x04, 0xb9, 0x3e, 0x8a, 0x6c, 0x26, 0x3e, 0x30, 0xde, 0x38, 0xbe,
  0xb4, 0x24, 0x8f, 0x3c, 0xe4, 0x92, 0x77, 0xbe, 0x60, 0x1c, 0x82, 0xbe,
  0xaf, 0xad, 0x3a, 0xbe, 0x8a, 0x42, 0xad, 0xbe, 0x58, 0x18, 0x66, 0x3e,
  0x7f, 0x5a, 0xd2, 0x3d, 0xec, 0x93, 0xc0, 0xbe, 0xa9, 0x62, 0x36, 0x3e,
  0xad, 0x43, 0xe3, 0x3c, 0x56, 0xb4, 0xac, 0x3e, 0x03, 0xc7, 0x4c, 0x3e,
  0x14, 0xbd, 0xff, 0xff, 0xa2, 0xd8, 0xff, 0xff, 0x04, 0x00, 0x00, 0x00,
  0x00, 0x01, 0x00, 0x00, 0x7c, 0x04, 0x74, 0x3e, 0xad, 0xa3, 0x3e, 0x3e,
  0xaf, 0x3a, 0x48, 0x3e, 0x04, 0x93, 0xbd, 0x3d, 0xef, 0xae, 0x47, 0x3e,
  0x97, 0x9d, 0x03, 0x3e, 0xef, 0x1b, 0x3b, 0x3f, 0x23, 0x80, 0x93, 0x3d,
  0xbf, 0xf9, 0x95, 0x3c, 0x78, 0xc1, 0xd8, 0x3d, 0x4b, 0xeb, 0x21, 0x3e,
  0xc2, 0x65, 0x33, 0x3e, 0x3d, 0x10, 0x8e, 0x3d, 0x95, 0x75, 0x44, 0x3e,
  0x7d, 0x22, 0x68, 0x3e, 0x48, 0x6e, 0x27, 0x3e, 0xfd, 0x65, 0x8f, 0x3f,
  0x3c, 0x9c, 0x97, 0x3f, 0xac, 0x81, 0x85, 0x3f, 0x5f, 0x8a, 0x7a, 0x3f,
  0x84, 0x25, 0x85, 0x3f, 0xc9, 0x9f, 0x5b, 0x3f, 0xa5, 0x42, 0xa8, 0x3f,
  0x89, 0x80, 0x82, 0x3f, 0x99, 0x92, 0x7c, 0x3f, 0x59, 0x12, 0x86, 0x3f,
  0xa6, 0xc9, 0x84, 0x3f, 0xba, 0x14, 0x85, 0x3f, 0xc8, 0x68, 0x83, 0x3f,
  0xa2, 0x77, 0x81, 0x3f, 0x68, 0x6c, 0x6c, 0x3f, 0x1f, 0x4e, 0x85, 0x3f,
  0x8c, 0xa4, 0xaa, 0x3d, 0x5c, 0x3f, 0x1f, 0x3e, 0x2d, 0x59, 0x08, 0xbe,
  0xe1, 0xf8, 0x8f, 0x3d, 0x07, 0x21, 0x02, 0x3e, 0x37, 0x60, 0x04, 0x3e,
  0xe5, 0xad, 0xfa, 0x3e, 0x16, 0xdf, 0xaa, 0xbe, 0x30, 0xb1, 0x99, 0x3c,
  0x39, 0xe3, 0x55, 0x3d, 0x4f, 0x22, 0xc2, 0x3d, 0x2a, 0x3a, 0x08, 0x3e,
  0xad, 0xd9, 0xc5, 0x3c, 0x51, 0xde, 0xe0, 0x3d, 0xaa, 0x68, 0xe3, 0xbc,
  0x94, 0x81, 0x14, 0x3e, 0xbb, 0x1d, 0xf1, 0x3d, 0xb7, 0xb8, 0xac, 0x3d,
  0x6d, 0xa1, 0x36, 0x3d, 0xb2, 0xfa, 0xc2, 0x3d, 0x4d, 0x44, 0x9c, 0xbe,
  0x8e, 0x23, 0x8d, 0x3d, 0x35, 0x42, 0xfd, 0x3e, 0x02, 0x8d, 0x7c, 0x3b,
  0xa5, 0x2a, 0xba, 0x3b, 0xdd, 0x15, 0xa4, 0xbd, 0xa8, 0xd9, 0x6c, 0x3d,
  0xfd, 0xb0, 0x04, 0x3d, 0xbe, 0xcc, 0xd2, 0xbd, 0x0d, 0xb5, 0xae, 0x3d,
  0xc1, 0xb6, 0x64, 0x3e, 0x56, 0x88, 0x8a, 0x3d, 0xae, 0xd9, 0xff, 0xff,
  0x04, 0x00, 0x00, 0x00, 0x00, 0x01, 0x00, 0x00, 0x26, 0x53, 0xfc, 0x3d,
  0xc2, 0x55, 0xb5, 0x3d, 0x48, 0x6f, 0x25, 0x3e, 0x07, 0xfc, 0xf0, 0x3d,
  0x21, 0x67, 0x8e, 0x3d, 0xf9, 0x52, 0x07, 0x3e, 0x2b, 0xe0, 0x01, 0x3e,
  0x49, 0x2d, 0x03, 0x3e, 0x3c, 0x0f, 0x20, 0x3e, 0xb8, 0x84, 0xff, 0x3d,
  0x31, 0x5a, 0x7f, 0x3e, 0x1e, 0x2b, 0x3c, 0x3e, 0x2f, 0xdb, 0x6c, 0x3d,
  0x4e, 0x0e, 0x09, 0x3e, 0xfd, 0xdb, 0x01, 0x3e, 0x28, 0x69, 0xe8, 0x3d,
  0xd1, 0x1b, 0x83, 0x3f, 0xf8, 0xbd, 0x84, 0x3f, 0x13, 0x0f, 0x85, 0x3f,
  0xa0, 0xe6, 0x87, 0x3f, 0xf7, 0xcd, 0x7d, 0x3f, 0xbf, 0xfd, 0x84, 0x3f,
  0x8c, 0x09, 0x86, 0x3f, 0x23, 0x39, 0x88, 0x3f, 0x41, 0xa8, 0x7f, 0x3f,
  0x44, 0x86, 0x85, 0x3f, 0x7e, 0x90, 0x85, 0x3f, 0x10, 0xfa, 0x84, 0x3f,
  0x76, 0xee, 0x7d, 0x3f, 0x57, 0xff, 0x86, 0x3f, 0x3e, 0x60, 0x84, 0x3f,
  0x77, 0x0f, 0x85, 0x3f, 0xb5, 0xf7, 0x6b, 0xbd, 0x6a, 0x22, 0x54, 0xbd,
  0x07, 0x07, 0x8e, 0x3d, 0x66, 0xc3, 0x7c, 0x3d, 0xe4, 0x34, 0x05, 0x3d,
  0xa4, 0xcd, 0xbb, 0xbd, 0xf0, 0x2b, 0x88, 0x3d, 0x6b, 0x25, 0x88, 0x3d,
  0xba, 0x0b, 0x87, 0x3e, 0x5b, 0x7f, 0x97, 0x3d, 0xe8, 0x2b, 0x78, 0xbd,
  0xba, 0xd7, 0xfb, 0x3d, 0xa9, 0x1a, 0x75, 0xbd, 0x1a, 0xa4, 0x4b, 0xbd,
  0x43, 0x8e, 0x04, 0x3d, 0xc3, 0x56, 0xae, 0x3d, 0x92, 0x42, 0xb7, 0x3c,
  0xd1, 0x1f, 0x8b, 0x3b, 0xd6, 0x3d, 0x63, 0x3e, 0x17, 0x1a, 0xb2, 0x3d,
  0x6d, 0x23, 0xd1, 0x3d, 0x70, 0x8f, 0x5e, 0x3d, 0x23, 0xe1, 0xdc, 0x3d,
  0x17, 0xe9, 0xbb, 0x3d, 0x04, 0x9b, 0xd7, 0x3d, 0x2c, 0x5e, 0xfe, 0x3d,
  0x0f, 0x86, 0x8c, 0x3e, 0xee, 0xdd, 0xb8, 0x3d, 0x5d, 0x20, 0x11, 0xbd,
  0x7d, 0xc7, 0x19, 0x3e, 0x0c, 0x3b, 0x0e, 0x3e, 0x26, 0xa2, 0xcb, 0x3d,
  0xba, 0xda, 0xff, 0xff, 0x04, 0x00, 0x00, 0x00, 0x50, 0x00, 0x00, 0x00,
  0x8a, 0x56, 0x12, 0x3e, 0xd2, 0x0d, 0x31, 0x3e, 0xa8, 0x3e, 0xbd, 0x3b,
  0xf8, 0xe7, 0x07, 0x3d, 0x69, 0x44, 0x0f, 0x3e, 0x60, 0x82, 0x3f, 0x3f,
  0x6f, 0xc2, 0x80, 0x3e, 0x2a, 0x88, 0x79, 0x3e, 0x33, 0xfb, 0xd5, 0x3e,
  0x52, 0x38, 0x4f, 0x3e, 0x3a, 0xac, 0x9c, 0x3d, 0xe5, 0xdf, 0xf0, 0xbc,
  0x66, 0x24, 0x86, 0x3e, 0xea, 0xc4, 0xc7, 0x3e, 0xe4, 0xd3, 0x90, 0x3e,
  0x0a, 0xf7, 0x8b, 0x3e, 0x8b, 0xa8, 0x03, 0x3d, 0x20, 0xcd, 0x0c, 0x3d,
  0x5a, 0xfa, 0xe1, 0x3c, 0x45, 0x51, 0xe4, 0x3c, 0x16, 0xdb, 0xff, 0xff,
  0x04, 0x00, 0x00, 0x00, 0x14, 0x00, 0x00, 0x00, 0x89, 0x8a, 0x0c, 0xbc,
  0x67, 0x1f, 0x4b, 0x3e, 0x15, 0xfd, 0xe3, 0x3d, 0xda, 0x55, 0x22, 0xbc,
  0x63, 0x1f, 0x47, 0xbe, 0x36, 0xdb, 0xff, 0xff, 0x04, 0x00, 0x00, 0x00,
  0x50, 0x00, 0x00, 0x00, 0x7f, 0xeb, 0x82, 0xbd, 0x17, 0x52, 0x03, 0x3d,
  0xb9, 0x44, 0xfb, 0xbc, 0x1d, 0x76, 0xb0, 0xbb, 0x90, 0xf7, 0x3d, 0xbf,
  0x55, 0xd8, 0x4d, 0x3f, 0x23, 0x0b, 0x2b, 0xbf, 0x07, 0x97, 0x7e, 0x3e,
  0x1c, 0x5b, 0x77, 0x3e, 0x22, 0x84, 0x4d, 0xbe, 0x54, 0x3d, 0xb6, 0x3d,
  0x7c, 0xc3, 0xba, 0xbe, 0xe3, 0xe4, 0x88, 0x3d, 0xe5, 0xe4, 0x8c, 0x3d,
  0xc1, 0x7a, 0x57, 0x3d, 0x9d, 0x3f, 0x69, 0x3d, 0x53, 0xa3, 0x9f, 0x3c,
  0xf3, 0x0f, 0xc9, 0x3c, 0x46, 0x16, 0xb8, 0x3c, 0x28, 0x02, 0xac, 0x3c,
  0x92, 0xdb, 0xff, 0xff, 0x04, 0x00, 0x00, 0x00, 0x0c, 0x00, 0x00, 0x00,
  0x01, 0x00, 0x00, 0x00, 0x00, 0x00, 0x00, 0x00, 0x02, 0x00, 0x00, 0x00,
  0x20, 0xc0, 0xff, 0xff, 0xae, 0xdb, 0xff, 0xff, 0x04, 0x00, 0x00, 0x00,
  0x04, 0x00, 0x00, 0x00, 0x01, 0x00, 0x00, 0x00, 0xbe, 0xdb, 0xff, 0xff,
  0x04, 0x00, 0x00, 0x00, 0x04, 0x00, 0x00, 0x00, 0x00, 0x00, 0x00, 0x00,
  0xce, 0xdb, 0xff, 0xff, 0x04, 0x00, 0x00, 0x00, 0x08, 0x00, 0x00, 0x00,
  0xff, 0xff, 0xff, 0xff, 0x10, 0x00, 0x00, 0x00, 0xe2, 0xdb, 0xff, 0xff,
  0x04, 0x00, 0x00, 0x00, 0x0c, 0x00, 0x00, 0x00, 0x01, 0x00, 0x00, 0x00,
  0x01, 0x00, 0x00, 0x00, 0x01, 0x00, 0x00, 0x00, 0xfa, 0xdb, 0xff, 0xff,
  0x04, 0x00, 0x00, 0x00, 0x0c, 0x00, 0x00, 0x00, 0x00, 0x00, 0x00, 0x00,
  0x00, 0x00, 0x00, 0x00, 0x10, 0x00, 0x00, 0x00, 0x12, 0xdc, 0xff, 0xff,
  0x04, 0x00, 0x00, 0x00, 0x0c, 0x00, 0x00, 0x00, 0xff, 0xff, 0xff, 0xff,
  0x00, 0x00, 0x00, 0x00, 0x00, 0x00, 0x00, 0x00, 0x2a, 0xdc, 0xff, 0xff,
  0x04, 0x00, 0x00, 0x00, 0x04, 0x00, 0x00, 0x00, 0x01, 0x00, 0x80, 0x3f,
  0xb0, 0xc0, 0xff, 0xff, 0xb4, 0xc0, 0xff, 0xff, 0xb8, 0xc0, 0xff, 0xff,
  0xbc, 0xc0, 0xff, 0xff, 0xc0, 0xc0, 0xff, 0xff, 0xc4, 0xc0, 0xff, 0xff,
  0x0f, 0x00, 0x00, 0x00, 0x4d, 0x4c, 0x49, 0x52, 0x20, 0x43, 0x6f, 0x6e,
  0x76, 0x65, 0x72, 0x74, 0x65, 0x64, 0x2e, 0x00, 0x05, 0x00, 0x00, 0x00,
  0x18, 0x23, 0x00, 0x00, 0x28, 0x20, 0x00, 0x00, 0xb0, 0x11, 0x00, 0x00,
  0x20, 0x0f, 0x00, 0x00, 0x04, 0x00, 0x00, 0x00, 0x0a, 0xdd, 0xff, 0xff,
  0x14, 0x00, 0x00, 0x00, 0x20, 0x00, 0x00, 0x00, 0x48, 0x04, 0x00, 0x00,
  0x64, 0x04, 0x00, 0x00, 0x80, 0x04, 0x00, 0x00, 0x0b, 0x00, 0x00, 0x00,
  0x77, 0x68, 0x69, 0x6c, 0x65, 0x31, 0x5f, 0x62, 0x6f, 0x64, 0x79, 0x00,
  0x12, 0x00, 0x00, 0x00, 0xf8, 0x03, 0x00, 0x00, 0xbc, 0x03, 0x00, 0x00,
  0x88, 0x03, 0x00, 0x00, 0x4c, 0x03, 0x00, 0x00, 0x18, 0x03, 0x00, 0x00,
  0xe4, 0x02, 0x00, 0x00, 0xa0, 0x02, 0x00, 0x00, 0x7c, 0x02, 0x00, 0x00,
  0x58, 0x02, 0x00, 0x00, 0x24, 0x02, 0x00, 0x00, 0x00, 0x02, 0x00, 0x00,
  0xdc, 0x01, 0x00, 0x00, 0xa8, 0x01, 0x00, 0x00, 0x74, 0x01, 0x00, 0x00,
  0x50, 0x01, 0x00, 0x00, 0x1c, 0x01, 0x00, 0x00, 0x38, 0x00, 0x00, 0x00,
  0x04, 0x00, 0x00, 0x00, 0x7e, 0xd9, 0xff, 0xff, 0x14, 0x00, 0x00, 0x00,
  0x00, 0x00, 0x00, 0x0b, 0x10, 0x00, 0x00, 0x00, 0x14, 0x00, 0x00, 0x00,
  0x08, 0x00, 0x00, 0x00, 0x80, 0xc1, 0xff, 0xff, 0x01, 0x00, 0x00, 0x00,
  0x20, 0x00, 0x00, 0x00, 0x02, 0x00, 0x00, 0x00, 0x00, 0x00, 0x00, 0x00,
  0x09, 0x00, 0x00, 0x00, 0x3c, 0xd9, 0xff, 0xff, 0x10, 0x00, 0x00, 0x00,
  0xc0, 0x00, 0x00, 0x00, 0xc4, 0x00, 0x00, 0x00, 0x10, 0x00, 0x00, 0x00,
  0xb0, 0x00, 0x00, 0x00, 0x11, 0x54, 0x65, 0x6e, 0x73, 0x6f, 0x72, 0x4c,
  0x69, 0x73, 0x74, 0x53, 0x65, 0x74, 0x49, 0x74, 0x65, 0x6d, 0x00, 0x93,
  0x12, 0x11, 0x54, 0x65, 0x6e, 0x73, 0x6f, 0x72, 0x4c, 0x69, 0x73, 0x74,
  0x53, 0x65, 0x74, 0x49, 0x74, 0x65, 0x6d, 0x1a, 0x00, 0x1a, 0x00, 0x1a,
  0x00, 0x2a, 0x13, 0x0a, 0x0d, 0x65, 0x6c, 0x65, 0x6d, 0x65, 0x6e, 0x74,
  0x5f, 0x64, 0x74, 0x79, 0x70, 0x65, 0x12, 0x02, 0x30, 0x01, 0x2a, 0x23,
  0x0a, 0x1d, 0x72, 0x65, 0x73, 0x69, 0x7a, 0x65, 0x5f, 0x69, 0x66, 0x5f,
  0x69, 0x6e, 0x64, 0x65, 0x78, 0x5f, 0x6f, 0x75, 0x74, 0x5f, 0x6f, 0x66,
  0x5f, 0x62, 0x6f, 0x75, 0x6e, 0x64, 0x73, 0x12, 0x02, 0x28, 0x00, 0x32,
  0x3e, 0x0a, 0x2a, 0x77, 0x68, 0x69, 0x6c, 0x65, 0x2f, 0x54, 0x65, 0x6e,
  0x73, 0x6f, 0x72, 0x41, 0x72, 0x72, 0x61, 0x79, 0x56, 0x32, 0x57, 0x72,
  0x69, 0x74, 0x65, 0x2f, 0x54, 0x65, 0x6e, 0x73, 0x6f, 0x72, 0x4c, 0x69,
  0x73, 0x74, 0x53, 0x65, 0x74, 0x49, 0x74, 0x65, 0x6d, 0x12, 0x10, 0x77,
  0x68, 0x69, 0x6c, 0x65, 0x5f, 0x62, 0x6f, 0x64, 0x79, 0x5f, 0x33, 0x31,
  0x35, 0x31, 0x39, 0x00, 0x02, 0xa8, 0x96, 0x14, 0x14, 0x04, 0x28, 0x01,
  0x01, 0x00, 0x00, 0x00, 0x1f, 0x00, 0x00, 0x00, 0x03, 0x00, 0x00, 0x00,
  0x02, 0x00, 0x00, 0x00, 0x07, 0x00, 0x00, 0x00, 0x1e, 0x00, 0x00, 0x00,
  0x8e, 0xda, 0xff, 0xff, 0x14, 0x00, 0x00, 0x00, 0x00, 0x00, 0x00, 0x15,
  0x10, 0x00, 0x00, 0x00, 0x14, 0x00, 0x00, 0x00, 0x0e, 0x00, 0x00, 0x00,
  0x90, 0xc2, 0xff, 0xff, 0x01, 0x00, 0x00, 0x00, 0x1e, 0x00, 0x00, 0x00,
  0x02, 0x00, 0x00, 0x00, 0x19, 0x00, 0x00, 0x00, 0x1d, 0x00, 0x00, 0x00,
  0xda, 0xdd, 0xff, 0xff, 0x0c, 0x00, 0x00, 0x00, 0x10, 0x00, 0x00, 0x00,
  0x0f, 0x00, 0x00, 0x00, 0x01, 0x00, 0x00, 0x00, 0x1d, 0x00, 0x00, 0x00,
  0x01, 0x00, 0x00, 0x00, 0x1c, 0x00, 0x00, 0x00, 0xde, 0xda, 0xff, 0xff,
  0x14, 0x00, 0x00, 0x00, 0x00, 0x00, 0x00, 0x0b, 0x10, 0x00, 0x00, 0x00,
  0x14, 0x00, 0x00, 0x00, 0x08, 0x00, 0x00, 0x00, 0xe0, 0xc2, 0xff, 0xff,
  0x01, 0x00, 0x00, 0x00, 0x1c, 0x00, 0x00, 0x00, 0x02, 0x00, 0x00, 0x00,
  0x18, 0x00, 0x00, 0x00, 0x1b, 0x00, 0x00, 0x00, 0x0e, 0xdb, 0xff, 0xff,
  0x14, 0x00, 0x00, 0x00, 0x00, 0x00, 0x00, 0x15, 0x10, 0x00, 0x00, 0x00,
  0x14, 0x00, 0x00, 0x00, 0x0e, 0x00, 0x00, 0x00, 0x10, 0xc3, 0xff, 0xff,
  0x01, 0x00, 0x00, 0x00, 0x1b, 0x00, 0x00, 0x00, 0x02, 0x00, 0x00, 0x00,
  0x16, 0x00, 0x00, 0x00, 0x1a, 0x00, 0x00, 0x00, 0x5a, 0xde, 0xff, 0xff,
  0x0c, 0x00, 0x00, 0x00, 0x10, 0x00, 0x00, 0x00, 0x0f, 0x00, 0x00, 0x00,
  0x01, 0x00, 0x00, 0x00, 0x1a, 0x00, 0x00, 0x00, 0x01, 0x00, 0x00, 0x00,
  0x14, 0x00, 0x00, 0x00, 0x7a, 0xde, 0xff, 0xff, 0x0c, 0x00, 0x00, 0x00,
  0x10, 0x00, 0x00, 0x00, 0x0d, 0x00, 0x00, 0x00, 0x01, 0x00, 0x00, 0x00,
  0x19, 0x00, 0x00, 0x00, 0x01, 0x00, 0x00, 0x00, 0x15, 0x00, 0x00, 0x00,
  0x7e, 0xdb, 0xff, 0xff, 0x14, 0x00, 0x00, 0x00, 0x00, 0x00, 0x00, 0x15,
  0x10, 0x00, 0x00, 0x00, 0x14, 0x00, 0x00, 0x00, 0x0e, 0x00, 0x00, 0x00,
  0x80, 0xc3, 0xff, 0xff, 0x01, 0x00, 0x00, 0x00, 0x18, 0x00, 0x00, 0x00,
  0x02, 0x00, 0x00, 0x00, 0x17, 0x00, 0x00, 0x00, 0x04, 0x00, 0x00, 0x00,
  0xca, 0xde, 0xff, 0xff, 0x0c, 0x00, 0x00, 0x00, 0x10, 0x00, 0x00, 0x00,
  0x0d, 0x00, 0x00, 0x00, 0x01, 0x00, 0x00, 0x00, 0x17, 0x00, 0x00, 0x00,
  0x01, 0x00, 0x00, 0x00, 0x13, 0x00, 0x00, 0x00, 0xea, 0xde, 0xff, 0xff,
  0x0c, 0x00, 0x00, 0x00, 0x10, 0x00, 0x00, 0x00, 0x0d, 0x00, 0x00, 0x00,
  0x01, 0x00, 0x00, 0x00, 0x16, 0x00, 0x00, 0x00, 0x01, 0x00, 0x00, 0x00,
  0x12, 0x00, 0x00, 0x00, 0xee, 0xdb, 0xff, 0xff, 0x14, 0x00, 0x00, 0x00,
  0x00, 0x00, 0x00, 0x23, 0x14, 0x00, 0x00, 0x00, 0x24, 0x00, 0x00, 0x00,
  0x0c, 0x00, 0x00, 0x00, 0x7a, 0xdf, 0xff, 0xff, 0x04, 0x00, 0x00, 0x00,
  0x04, 0x00, 0x00, 0x00, 0x12, 0x00, 0x00, 0x00, 0x13, 0x00, 0x00, 0x00,
  0x14, 0x00, 0x00, 0x00, 0x15, 0x00, 0x00, 0x00, 0x02, 0x00, 0x00, 0x00,
  0x09, 0x00, 0x00, 0x00, 0x11, 0x00, 0x00, 0x00, 0x2e, 0xdc, 0xff, 0xff,
  0x14, 0x00, 0x00, 0x00, 0x00, 0x00, 0x00, 0x0b, 0x10, 0x00, 0x00, 0x00,
  0x14, 0x00, 0x00, 0x00, 0x08, 0x00, 0x00, 0x00, 0x30, 0xc4, 0xff, 0xff,
  0x01, 0x00, 0x00, 0x00, 0x11, 0x00, 0x00, 0x00, 0x02, 0x00, 0x00, 0x00,
  0x10, 0x00, 0x00, 0x00, 0x08, 0x00, 0x00, 0x00, 0x5e, 0xdc, 0xff, 0xff,
  0x14, 0x00, 0x00, 0x00, 0x00, 0x00, 0x00, 0x0b, 0x10, 0x00, 0x00, 0x00,
  0x14, 0x00, 0x00, 0x00, 0x08, 0x00, 0x00, 0x00, 0x60, 0xc4, 0xff, 0xff,
  0x01, 0x00, 0x00, 0x00, 0x10, 0x00, 0x00, 0x00, 0x02, 0x00, 0x00, 0x00,
  0x0f, 0x00, 0x00, 0x00, 0x0d, 0x00, 0x00, 0x00, 0x8e, 0xdc, 0xff, 0xff,
  0x14, 0x00, 0x00, 0x00, 0x00, 0x00, 0x00, 0x08, 0x14, 0x00, 0x00, 0x00,
  0x18, 0x00, 0x00, 0x00, 0x06, 0x00, 0x00, 0x00, 0xf8, 0xed, 0xff, 0xff,
  0x00, 0x00, 0x00, 0x01, 0x01, 0x00, 0x00, 0x00, 0x0f, 0x00, 0x00, 0x00,
  0x03, 0x00, 0x00, 0x00, 0x0e, 0x00, 0x00, 0x00, 0x0b, 0x00, 0x00, 0x00,
  0xff, 0xff, 0xff, 0xff, 0xc6, 0xdc, 0xff, 0xff, 0x14, 0x00, 0x00, 0x00,
  0x00, 0x00, 0x00, 0x17, 0x10, 0x00, 0x00, 0x00, 0x14, 0x00, 0x00, 0x00,
  0x0b, 0x00, 0x00, 0x00, 0xc8, 0xc4, 0xff, 0xff, 0x01, 0x00, 0x00, 0x00,
  0x0e, 0x00, 0x00, 0x00, 0x02, 0x00, 0x00, 0x00, 0x06, 0x00, 0x00, 0x00,
  0x01, 0x00, 0x00, 0x00, 0xf6, 0xdc, 0xff, 0xff, 0x14, 0x00, 0x00, 0x00,
  0x00, 0x00, 0x00, 0x08, 0x14, 0x00, 0x00, 0x00, 0x18, 0x00, 0x00, 0x00,
  0x06, 0x00, 0x00, 0x00, 0x60, 0xee, 0xff, 0xff, 0x00, 0x00, 0x00, 0x01,
  0x01, 0x00, 0x00, 0x00, 0x0d, 0x00, 0x00, 0x00, 0x03, 0x00, 0x00, 0x00,
  0x03, 0x00, 0x00, 0x00, 0x0a, 0x00, 0x00, 0x00, 0xff, 0xff, 0xff, 0xff,
  0x2e, 0xdd, 0xff, 0xff, 0x14, 0x00, 0x00, 0x00, 0x00, 0x00, 0x00, 0x0b,
  0x10, 0x00, 0x00, 0x00, 0x14, 0x00, 0x00, 0x00, 0x08, 0x00, 0x00, 0x00,
  0x30, 0xc5, 0xff, 0xff, 0x01, 0x00, 0x00, 0x00, 0x0c, 0x00, 0x00, 0x00,
  0x02, 0x00, 0x00, 0x00, 0x01, 0x00, 0x00, 0x00, 0x09, 0x00, 0x00, 0x00,
  0x07, 0x00, 0x00, 0x00, 0x20, 0x00, 0x00, 0x00, 0x0c, 0x00, 0x00, 0x00,
  0x1f, 0x00, 0x00, 0x00, 0x1e, 0x00, 0x00, 0x00, 0x1c, 0x00, 0x00, 0x00,
  0x05, 0x00, 0x00, 0x00, 0x06, 0x00, 0x00, 0x00, 0x07, 0x00, 0x00, 0x00,
  0x00, 0x00, 0x00, 0x00, 0x01, 0x00, 0x00, 0x00, 0x02, 0x00, 0x00, 0x00,
  0x03, 0x00, 0x00, 0x00, 0x04, 0x00, 0x00, 0x00, 0x05, 0x00, 0x00, 0x00,
  0x06, 0x00, 0x00, 0x00, 0x21, 0x00, 0x00, 0x00, 0x50, 0x0a, 0x00, 0x00,
  0x1c, 0x0a, 0x00, 0x00, 0xc4, 0x09, 0x00, 0x00, 0x7c, 0x09, 0x00, 0x00,
  0x34, 0x09, 0x00, 0x00, 0x00, 0x09, 0x00, 0x00, 0xb0, 0x08, 0x00, 0x00,
  0x7c, 0x08, 0x00, 0x00, 0x00, 0x08, 0x00, 0x00, 0x78, 0x07, 0x00, 0x00,
  0x14, 0x07, 0x00, 0x00, 0xb0, 0x06, 0x00, 0x00, 0x74, 0x06, 0x00, 0x00,
  0x24, 0x06, 0x00, 0x00, 0xb8, 0x05, 0x00, 0x00, 0x68, 0x05, 0x00, 0x00,
  0x1c, 0x05, 0x00, 0x00, 0xcc, 0x04, 0x00, 0x00, 0x7c, 0x04, 0x00, 0x00,
  0x2c, 0x04, 0x00, 0x00, 0xdc, 0x03, 0x00, 0x00, 0x8c, 0x03, 0x00, 0x00,
  0x3c, 0x03, 0x00, 0x00, 0xe8, 0x02, 0x00, 0x00, 0x9c, 0x02, 0x00, 0x00,
  0x48, 0x02, 0x00, 0x00, 0xfc, 0x01, 0x00, 0x00, 0xac, 0x01, 0x00, 0x00,
  0x5c, 0x01, 0x00, 0x00, 0x0c, 0x01, 0x00, 0x00, 0xbc, 0x00, 0x00, 0x00,
  0x40, 0x00, 0x00, 0x00, 0x04, 0x00, 0x00, 0x00, 0x8a, 0xca, 0xff, 0xff,
  0x00, 0x00, 0x00, 0x01, 0x14, 0x00, 0x00, 0x00, 0x14, 0x00, 0x00, 0x00,
  0x81, 0x00, 0x00, 0x00, 0x00, 0x00, 0x00, 0x02, 0x1c, 0x00, 0x00, 0x00,
  0x2c, 0xc6, 0xff, 0xff, 0x0c, 0x00, 0x00, 0x00, 0x77, 0x68, 0x69, 0x6c,
  0x65, 0x2f, 0x61, 0x64, 0x64, 0x5f, 0x33, 0x31, 0x00, 0x00, 0x00, 0x00,
  0x00, 0x00, 0x00, 0x00, 0xf4, 0xd1, 0xff, 0xff, 0x1c, 0x00, 0x00, 0x00,
  0x00, 0x00, 0x00, 0x01, 0x34, 0x00, 0x00, 0x00, 0x34, 0x00, 0x00, 0x00,
  0x80, 0x00, 0x00, 0x00, 0x00, 0x00, 0x00, 0x0e, 0x58, 0x00, 0x00, 0x00,
  0x01, 0x00, 0x00, 0x00, 0x04, 0x00, 0x00, 0x00, 0xda, 0xd1, 0xff, 0xff,
  0x00, 0x00, 0x00, 0x01, 0x04, 0x00, 0x00, 0x00, 0x02, 0x00, 0x00, 0x00,
  0x00, 0x00, 0x00, 0x00, 0x10, 0x00, 0x00, 0x00, 0x88, 0xc6, 0xff, 0xff,
  0x2b, 0x00, 0x00, 0x00, 0x77, 0x68, 0x69, 0x6c, 0x65, 0x2f, 0x54, 0x65,
  0x6e, 0x73, 0x6f, 0x72, 0x41, 0x72, 0x72, 0x61, 0x79, 0x56, 0x32, 0x57,
  0x72, 0x69, 0x74, 0x65, 0x2f, 0x54, 0x65, 0x6e, 0x73, 0x6f, 0x72, 0x4c,
  0x69, 0x73, 0x74, 0x53, 0x65, 0x74, 0x49, 0x74, 0x65, 0x6d, 0x31, 0x00,
  0x00, 0x00, 0x00, 0x00, 0xf6, 0xc7, 0xff, 0xff, 0x00, 0x00, 0x00, 0x01,
  0x14, 0x00, 0x00, 0x00, 0x1c, 0x00, 0x00, 0x00, 0x1c, 0x00, 0x00, 0x00,
  0x7f, 0x00, 0x00, 0x00, 0x28, 0x00, 0x00, 0x00, 0x02, 0x00, 0x00, 0x00,
  0xff, 0xff, 0xff, 0xff, 0x10, 0x00, 0x00, 0x00, 0xe8, 0xc6, 0xff, 0xff,
  0x0c, 0x00, 0x00, 0x00, 0x77, 0x68, 0x69, 0x6c, 0x65, 0x2f, 0x6d, 0x75,
  0x6c, 0x5f, 0x32, 0x31, 0x00, 0x00, 0x00, 0x00, 0x02, 0x00, 0x00, 0x00,
  0x01, 0x00, 0x00, 0x00, 0x10, 0x00, 0x00, 0x00, 0x42, 0xc8, 0xff, 0xff,
  0x00, 0x00, 0x00, 0x01, 0x14, 0x00, 0x00, 0x00, 0x1c, 0x00, 0x00, 0x00,
  0x1c, 0x00, 0x00, 0x00, 0x7e, 0x00, 0x00, 0x00, 0x28, 0x00, 0x00, 0x00,
  0x02, 0x00, 0x00, 0x00, 0xff, 0xff, 0xff, 0xff, 0x10, 0x00, 0x00, 0x00,
  0x34, 0xc7, 0xff, 0xff, 0x0d, 0x00, 0x00, 0x00, 0x77, 0x68, 0x69, 0x6c,
  0x65, 0x2f, 0x54, 0x61, 0x6e, 0x68, 0x5f, 0x31, 0x31, 0x00, 0x00, 0x00,
  0x02, 0x00, 0x00, 0x00, 0x01, 0x00, 0x00, 0x00, 0x10, 0x00, 0x00, 0x00,
  0x8e, 0xc8, 0xff, 0xff, 0x00, 0x00, 0x00, 0x01, 0x14, 0x00, 0x00, 0x00,
  0x1c, 0x00, 0x00, 0x00, 0x1c, 0x00, 0x00, 0x00, 0x7d, 0x00, 0x00, 0x00,
  0x28, 0x00, 0x00, 0x00, 0x02, 0x00, 0x00, 0x00, 0xff, 0xff, 0xff, 0xff,
  0x10, 0x00, 0x00, 0x00, 0x80, 0xc7, 0xff, 0xff, 0x0c, 0x00, 0x00, 0x00,
  0x77, 0x68, 0x69, 0x6c, 0x65, 0x2f, 0x61, 0x64, 0x64, 0x5f, 0x31, 0x31,
  0x00, 0x00, 0x00, 0x00, 0x02, 0x00, 0x00, 0x00, 0x01, 0x00, 0x00, 0x00,
  0x10, 0x00, 0x00, 0x00, 0xda, 0xc8, 0xff, 0xff, 0x00, 0x00, 0x00, 0x01,
  0x14, 0x00, 0x00, 0x00, 0x1c, 0x00, 0x00, 0x00, 0x1c, 0x00, 0x00, 0x00,
  0x7c, 0x00, 0x00, 0x00, 0x28, 0x00, 0x00, 0x00, 0x02, 0x00, 0x00, 0x00,
  0xff, 0xff, 0xff, 0xff, 0x10, 0x00, 0x00, 0x00, 0xcc, 0xc7, 0xff, 0xff,
  0x0c, 0x00, 0x00, 0x00, 0x77, 0x68, 0x69, 0x6c, 0x65, 0x2f, 0x6d, 0x75,
  0x6c, 0x5f, 0x31, 0x31, 0x00, 0x00, 0x00, 0x00, 0x02, 0x00, 0x00, 0x00,
  0x01, 0x00, 0x00, 0x00, 0x10, 0x00, 0x00, 0x00, 0x26, 0xc9, 0xff, 0xff,
  0x00, 0x00, 0x00, 0x01, 0x14, 0x00, 0x00, 0x00, 0x1c, 0x00, 0x00, 0x00,
  0x1c, 0x00, 0x00, 0x00, 0x7b, 0x00, 0x00, 0x00, 0x24, 0x00, 0x00, 0x00,
  0x02, 0x00, 0x00, 0x00, 0xff, 0xff, 0xff, 0xff, 0x10, 0x00, 0x00, 0x00,
  0x18, 0xc8, 0xff, 0xff, 0x0b, 0x00, 0x00, 0x00, 0x77, 0x68, 0x69, 0x6c,
  0x65, 0x2f, 0x54, 0x61, 0x6e, 0x68, 0x31, 0x00, 0x02, 0x00, 0x00, 0x00,
  0x01, 0x00, 0x00, 0x00, 0x10, 0x00, 0x00, 0x00, 0x6e, 0xc9, 0xff, 0xff,
  0x00, 0x00, 0x00, 0x01, 0x14, 0x00, 0x00, 0x00, 0x1c, 0x00, 0x00, 0x00,
  0x1c, 0x00, 0x00, 0x00, 0x7a, 0x00, 0x00, 0x00, 0x2c, 0x00, 0x00, 0x00,
  0x02, 0x00, 0x00, 0x00, 0xff, 0xff, 0xff, 0xff, 0x10, 0x00, 0x00, 0x00,
  0x60, 0xc8, 0xff, 0xff, 0x10, 0x00, 0x00, 0x00, 0x77, 0x68, 0x69, 0x6c,
  0x65, 0x2f, 0x53, 0x69, 0x67, 0x6d, 0x6f, 0x69, 0x64, 0x5f, 0x32, 0x31,
  0x00, 0x00, 0x00, 0x00, 0x02, 0x00, 0x00, 0x00, 0x01, 0x00, 0x00, 0x00,
  0x10, 0x00, 0x00, 0x00, 0xbe, 0xc9, 0xff, 0xff, 0x00, 0x00, 0x00, 0x01,
  0x14, 0x00, 0x00, 0x00, 0x1c, 0x00, 0x00, 0x00, 0x1c, 0x00, 0x00, 0x00,
  0x79, 0x00, 0x00, 0x00, 0x24, 0x00, 0x00, 0x00, 0x02, 0x00, 0x00, 0x00,
  0xff, 0xff, 0xff, 0xff, 0x10, 0x00, 0x00, 0x00, 0xb0, 0xc8, 0xff, 0xff,
  0x0a, 0x00, 0x00, 0x00, 0x77, 0x68, 0x69, 0x6c, 0x65, 0x2f, 0x6d, 0x75,
  0x6c, 0x31, 0x00, 0x00, 0x02, 0x00, 0x00, 0x00, 0x01, 0x00, 0x00, 0x00,
  0x10, 0x00, 0x00, 0x00, 0x06, 0xca, 0xff, 0xff, 0x00, 0x00, 0x00, 0x01,
  0x14, 0x00, 0x00, 0x00, 0x1c, 0x00, 0x00, 0x00, 0x1c, 0x00, 0x00, 0x00,
  0x78, 0x00, 0x00, 0x00, 0x2c, 0x00, 0x00, 0x00, 0x02, 0x00, 0x00, 0x00,
  0xff, 0xff, 0xff, 0xff, 0x10, 0x00, 0x00, 0x00, 0xf8, 0xc8, 0xff, 0xff,
  0x10, 0x00, 0x00, 0x00, 0x77, 0x68, 0x69, 0x6c, 0x65, 0x2f, 0x53, 0x69,
  0x67, 0x6d, 0x6f, 0x69, 0x64, 0x5f, 0x31, 0x31, 0x00, 0x00, 0x00, 0x00,
  0x02, 0x00, 0x00, 0x00, 0x01, 0x00, 0x00, 0x00, 0x10, 0x00, 0x00, 0x00,
  0x56, 0xca, 0xff, 0xff, 0x00, 0x00, 0x00, 0x01, 0x14, 0x00, 0x00, 0x00,
  0x1c, 0x00, 0x00, 0x00, 0x1c, 0x00, 0x00, 0x00, 0x77, 0x00, 0x00, 0x00,
  0x28, 0x00, 0x00, 0x00, 0x02, 0x00, 0x00, 0x00, 0xff, 0xff, 0xff, 0xff,
  0x10, 0x00, 0x00, 0x00, 0x48, 0xc9, 0xff, 0xff, 0x0e, 0x00, 0x00, 0x00,
  0x77, 0x68, 0x69, 0x6c, 0x65, 0x2f, 0x53, 0x69, 0x67, 0x6d, 0x6f, 0x69,
  0x64, 0x31, 0x00, 0x00, 0x02, 0x00, 0x00, 0x00, 0x01, 0x00, 0x00, 0x00,
  0x10, 0x00, 0x00, 0x00, 0xa2, 0xca, 0xff, 0xff, 0x00, 0x00, 0x00, 0x01,
  0x14, 0x00, 0x00, 0x00, 0x1c, 0x00, 0x00, 0x00, 0x1c, 0x00, 0x00, 0x00,
  0x76, 0x00, 0x00, 0x00, 0x28, 0x00, 0x00, 0x00, 0x02, 0x00, 0x00, 0x00,
  0xff, 0xff, 0xff, 0xff, 0x10, 0x00, 0x00, 0x00, 0x94, 0xc9, 0xff, 0xff,
  0x0c, 0x00, 0x00, 0x00, 0x77, 0x68, 0x69, 0x6c, 0x65, 0x2f, 0x73, 0x70,
  0x6c, 0x69, 0x74, 0x37, 0x00, 0x00, 0x00, 0x00, 0x02, 0x00, 0x00, 0x00,
  0x01, 0x00, 0x00, 0x00, 0x10, 0x00, 0x00, 0x00, 0xee, 0xca, 0xff, 0xff,
  0x00, 0x00, 0x00, 0x01, 0x14, 0x00, 0x00, 0x00, 0x1c, 0x00, 0x00, 0x00,
  0x1c, 0x00, 0x00, 0x00, 0x75, 0x00, 0x00, 0x00, 0x28, 0x00, 0x00, 0x00,
  0x02, 0x00, 0x00, 0x00, 0xff, 0xff, 0xff, 0xff, 0x10, 0x00, 0x00, 0x00,
  0xe0, 0xc9, 0xff, 0xff, 0x0c, 0x00, 0x00, 0x00, 0x77, 0x68, 0x69, 0x6c,
  0x65, 0x2f, 0x73, 0x70, 0x6c, 0x69, 0x74, 0x36, 0x00, 0x00, 0x00, 0x00,
  0x02, 0x00, 0x00, 0x00, 0x01, 0x00, 0x00, 0x00, 0x10, 0x00, 0x00, 0x00,
  0x3a, 0xcb, 0xff, 0xff, 0x00, 0x00, 0x00, 0x01, 0x14, 0x00, 0x00, 0x00,
  0x1c, 0x00, 0x00, 0x00, 0x1c, 0x00, 0x00, 0x00, 0x74, 0x00, 0x00, 0x00,
  0x28, 0x00, 0x00, 0x00, 0x02, 0x00, 0x00, 0x00, 0xff, 0xff, 0xff, 0xff,
  0x10, 0x00, 0x00, 0x00, 0x2c, 0xca, 0xff, 0xff, 0x0c, 0x00, 0x00, 0x00,
  0x77, 0x68, 0x69, 0x6c, 0x65, 0x2f, 0x73, 0x70, 0x6c, 0x69, 0x74, 0x35,
  0x00, 0x00, 0x00, 0x00, 0x02, 0x00, 0x00, 0x00, 0x01, 0x00, 0x00, 0x00,
  0x10, 0x00, 0x00, 0x00, 0x86, 0xcb, 0xff, 0xff, 0x00, 0x00, 0x00, 0x01,
  0x14, 0x00, 0x00, 0x00, 0x1c, 0x00, 0x00, 0x00, 0x1c, 0x00, 0x00, 0x00,
  0x73, 0x00, 0x00, 0x00, 0x28, 0x00, 0x00, 0x00, 0x02, 0x00, 0x00, 0x00,
  0xff, 0xff, 0xff, 0xff, 0x10, 0x00, 0x00, 0x00, 0x78, 0xca, 0xff, 0xff,
  0x0c, 0x00, 0x00, 0x00, 0x77, 0x68, 0x69, 0x6c, 0x65, 0x2f, 0x73, 0x70,
  0x6c, 0x69, 0x74, 0x34, 0x00, 0x00, 0x00, 0x00, 0x02, 0x00, 0x00, 0x00,
  0x01, 0x00, 0x00, 0x00, 0x10, 0x00, 0x00, 0x00, 0xd2, 0xcb, 0xff, 0xff,
  0x00, 0x00, 0x00, 0x01, 0x14, 0x00, 0x00, 0x00, 0x1c, 0x00, 0x00, 0x00,
  0x1c, 0x00, 0x00, 0x00, 0x72, 0x00, 0x00, 0x00, 0x28, 0x00, 0x00, 0x00,
  0x02, 0x00, 0x00, 0x00, 0xff, 0xff, 0xff, 0xff, 0x40, 0x00, 0x00, 0x00,
  0xc4, 0xca, 0xff, 0xff, 0x0e, 0x00, 0x00, 0x00, 0x77, 0x68, 0x69, 0x6c,
  0x65, 0x2f, 0x42, 0x69, 0x61, 0x73, 0x41, 0x64, 0x64, 0x31, 0x00, 0x00,
  0x02, 0x00, 0x00, 0x00, 0x01, 0x00, 0x00, 0x00, 0x40, 0x00, 0x00, 0x00,
  0x1e, 0xcc, 0xff, 0xff, 0x00, 0x00, 0x00, 0x01, 0x14, 0x00, 0x00, 0x00,
  0x1c, 0x00, 0x00, 0x00, 0x1c, 0x00, 0x00, 0x00, 0x71, 0x00, 0x00, 0x00,
  0x24, 0x00, 0x00, 0x00, 0x02, 0x00, 0x00, 0x00, 0xff, 0xff, 0xff, 0xff,
  0x40, 0x00, 0x00, 0x00, 0x10, 0xcb, 0xff, 0xff, 0x0a, 0x00, 0x00, 0x00,
  0x77, 0x68, 0x69, 0x6c, 0x65, 0x2f, 0x61, 0x64, 0x64, 0x31, 0x00, 0x00,
  0x02, 0x00, 0x00, 0x00, 0x01, 0x00, 0x00, 0x00, 0x40, 0x00, 0x00, 0x00,
  0x66, 0xcc, 0xff, 0xff, 0x00, 0x00, 0x00, 0x01, 0x14, 0x00, 0x00, 0x00,
  0x1c, 0x00, 0x00, 0x00, 0x1c, 0x00, 0x00, 0x00, 0x70, 0x00, 0x00, 0x00,
  0x28, 0x00, 0x00, 0x00, 0x02, 0x00, 0x00, 0x00, 0xff, 0xff, 0xff, 0xff,
  0x40, 0x00, 0x00, 0x00, 0x58, 0xcb, 0xff, 0xff, 0x0d, 0x00, 0x00, 0x00,
  0x77, 0x68, 0x69, 0x6c, 0x65, 0x2f, 0x4d, 0x61, 0x74, 0x4d, 0x75, 0x6c,
  0x33, 0x00, 0x00, 0x00, 0x02, 0x00, 0x00, 0x00, 0x01, 0x00, 0x00, 0x00,
  0x40, 0x00, 0x00, 0x00, 0xb2, 0xcc, 0xff, 0xff, 0x00, 0x00, 0x00, 0x01,
  0x14, 0x00, 0x00, 0x00, 0x1c, 0x00, 0x00, 0x00, 0x1c, 0x00, 0x00, 0x00,
  0x6f, 0x00, 0x00, 0x00, 0x44, 0x00, 0x00, 0x00, 0x02, 0x00, 0x00, 0x00,
  0xff, 0xff, 0xff, 0xff, 0x10, 0x00, 0x00, 0x00, 0xa4, 0xcb, 0xff, 0xff,
  0x2a, 0x00, 0x00, 0x00, 0x77, 0x68, 0x69, 0x6c, 0x65, 0x2f, 0x54, 0x65,
  0x6e, 0x73, 0x6f, 0x72, 0x41, 0x72, 0x72, 0x61, 0x79, 0x56, 0x32, 0x52,
  0x65, 0x61, 0x64, 0x2f, 0x54, 0x65, 0x6e, 0x73, 0x6f, 0x72, 0x4c, 0x69,
  0x73, 0x74, 0x47, 0x65, 0x74, 0x49, 0x74, 0x65, 0x6d, 0x31, 0x00, 0x00,
  0x02, 0x00, 0x00, 0x00, 0x01, 0x00, 0x00, 0x00, 0x10, 0x00, 0x00, 0x00,
  0x1a, 0xcd, 0xff, 0xff, 0x00, 0x00, 0x00, 0x01, 0x14, 0x00, 0x00, 0x00,
  0x1c, 0x00, 0x00, 0x00, 0x1c, 0x00, 0x00, 0x00, 0x6e, 0x00, 0x00, 0x00,
  0x28, 0x00, 0x00, 0x00, 0x02, 0x00, 0x00, 0x00, 0xff, 0xff, 0xff, 0xff,
  0x40, 0x00, 0x00, 0x00, 0x0c, 0xcc, 0xff, 0xff, 0x0f, 0x00, 0x00, 0x00,
  0x77, 0x68, 0x69, 0x6c, 0x65, 0x2f, 0x4d, 0x61, 0x74, 0x4d, 0x75, 0x6c,
  0x5f, 0x31, 0x35, 0x00, 0x02, 0x00, 0x00, 0x00, 0x01, 0x00, 0x00, 0x00,
  0x40, 0x00, 0x00, 0x00, 0xaa, 0xd0, 0xff, 0xff, 0x00, 0x00, 0x00, 0x01,
  0x14, 0x00, 0x00, 0x00, 0x14, 0x00, 0x00, 0x00, 0x6d, 0x00, 0x00, 0x00,
  0x00, 0x00, 0x00, 0x02, 0x1c, 0x00, 0x00, 0x00, 0x4c, 0xcc, 0xff, 0xff,
  0x0c, 0x00, 0x00, 0x00, 0x77, 0x68, 0x69, 0x6c, 0x65, 0x2f, 0x61, 0x64,
  0x64, 0x5f, 0x32, 0x31, 0x00, 0x00, 0x00, 0x00, 0x00, 0x00, 0x00, 0x00,
  0xe2, 0xd0, 0xff, 0xff, 0x00, 0x00, 0x00, 0x01, 0x14, 0x00, 0x00, 0x00,
  0x34, 0x00, 0x00, 0x00, 0x6c, 0x00, 0x00, 0x00, 0x00, 0x00, 0x00, 0x09,
  0x3c, 0x00, 0x00, 0x00, 0x84, 0xee, 0xff, 0xff, 0x08, 0x00, 0x00, 0x00,
  0x14, 0x00, 0x00, 0x00, 0x01, 0x00, 0x00, 0x00, 0x00, 0x00, 0x00, 0x00,
  0x00, 0x00, 0x00, 0x00, 0x00, 0x00, 0x00, 0x00, 0x01, 0x00, 0x00, 0x00,
  0xb5, 0xa0, 0x39, 0x3c, 0x0d, 0x00, 0x00, 0x00, 0x77, 0x68, 0x69, 0x6c,
  0x65, 0x2f, 0x4d, 0x61, 0x74, 0x4d, 0x75, 0x6c, 0x32, 0x00, 0x00, 0x00,
  0x02, 0x00, 0x00, 0x00, 0x40, 0x00, 0x00, 0x00, 0x10, 0x00, 0x00, 0x00,
  0x42, 0xd1, 0xff, 0xff, 0x00, 0x00, 0x00, 0x01, 0x14, 0x00, 0x00, 0x00,
  0x34, 0x00, 0x00, 0x00, 0x6b, 0x00, 0x00, 0x00, 0x00, 0x00, 0x00, 0x09,
  0x3c, 0x00, 0x00, 0x00, 0xe4, 0xee, 0xff, 0xff, 0x08, 0x00, 0x00, 0x00,
  0x14, 0x00, 0x00, 0x00, 0x01, 0x00, 0x00, 0x00, 0x00, 0x00, 0x00, 0x00,
  0x00, 0x00, 0x00, 0x00, 0x00, 0x00, 0x00, 0x00, 0x01, 0x00, 0x00, 0x00,
  0xcd, 0x5b, 0xc2, 0x3b, 0x0f, 0x00, 0x00, 0x00, 0x77, 0x68, 0x69, 0x6c,
  0x65, 0x2f, 0x4d, 0x61, 0x74, 0x4d, 0x75, 0x6c, 0x5f, 0x31, 0x34, 0x00,
  0x02, 0x00, 0x00, 0x00, 0x40, 0x00, 0x00, 0x00, 0x10, 0x00, 0x00, 0x00,
  0xa2, 0xd1, 0xff, 0xff, 0x00, 0x00, 0x00, 0x01, 0x14, 0x00, 0x00, 0x00,
  0x14, 0x00, 0x00, 0x00, 0x0c, 0x00, 0x00, 0x00, 0x00, 0x00, 0x00, 0x02,
  0x68, 0x00, 0x00, 0x00, 0x44, 0xcd, 0xff, 0xff, 0x5a, 0x00, 0x00, 0x00,
  0x6d, 0x75, 0x73, 0x69, 0x63, 0x4d, 0x44, 0x52, 0x4e, 0x4e, 0x2d, 0x64,
  0x69, 0x6d, 0x34, 0x2d, 0x6c, 0x61, 0x79, 0x65, 0x72, 0x73, 0x32, 0x2d,
  0x75, 0x6e, 0x69, 0x74, 0x73, 0x31, 0x36, 0x2d, 0x6d, 0x69, 0x78, 0x74,
  0x75, 0x72, 0x65, 0x73, 0x35, 0x2d, 0x73, 0x63, 0x61, 0x6c, 0x65, 0x31,
  0x30, 0x2f, 0x6d, 0x64, 0x6e, 0x5f, 0x6f, 0x75, 0x74, 0x70, 0x75, 0x74,
  0x73, 0x2f, 0x4d, 0x44, 0x4e, 0x2f, 0x6d, 0x64, 0x6e, 0x5f, 0x6f, 0x75,
  0x74, 0x70, 0x75, 0x74, 0x73, 0x2f, 0x63, 0x6f, 0x6e, 0x63, 0x61, 0x74,
  0x2f, 0x61, 0x78, 0x69, 0x73, 0x33, 0x00, 0x00, 0x00, 0x00, 0x00, 0x00,
  0xd2, 0xd1, 0xff, 0xff, 0x00, 0x00, 0x00, 0x01, 0x10, 0x00, 0x00, 0x00,
  0x10, 0x00, 0x00, 0x00, 0x69, 0x00, 0x00, 0x00, 0x5c, 0x00, 0x00, 0x00,
  0xc4, 0xcd, 0xff, 0xff, 0x4f, 0x00, 0x00, 0x00, 0x6d, 0x75, 0x73, 0x69,
  0x63, 0x4d, 0x44, 0x52, 0x4e, 0x4e, 0x2d, 0x64, 0x69, 0x6d, 0x34, 0x2d,
  0x6c, 0x61, 0x79, 0x65, 0x72, 0x73, 0x32, 0x2d, 0x75, 0x6e, 0x69, 0x74,
  0x73, 0x31, 0x36, 0x2d, 0x6d, 0x69, 0x78, 0x74, 0x75, 0x72, 0x65, 0x73,
  0x35, 0x2d, 0x73, 0x63, 0x61, 0x6c, 0x65, 0x31, 0x30, 0x2f, 0x6c, 0x73,
  0x74, 0x6d, 0x5f, 0x31, 0x2f, 0x52, 0x65, 0x61, 0x64, 0x5f, 0x32, 0x2f,
  0x52, 0x65, 0x61, 0x64, 0x56, 0x61, 0x72, 0x69, 0x61, 0x62, 0x6c, 0x65,
  0x4f, 0x70, 0x31, 0x00, 0x01, 0x00, 0x00, 0x00, 0x40, 0x00, 0x00, 0x00,
  0x9e, 0xd2, 0xff, 0xff, 0x00, 0x00, 0x00, 0x01, 0x14, 0x00, 0x00, 0x00,
  0x14, 0x00, 0x00, 0x00, 0x0b, 0x00, 0x00, 0x00, 0x00, 0x00, 0x00, 0x02,
  0x14, 0x00, 0x00, 0x00, 0x40, 0xce, 0xff, 0xff, 0x05, 0x00, 0x00, 0x00,
  0x74, 0x69, 0x6d, 0x65, 0x31, 0x00, 0x00, 0x00, 0x00, 0x00, 0x00, 0x00,
  0x8a, 0xcf, 0xff, 0xff, 0x00, 0x00, 0x00, 0x01, 0x14, 0x00, 0x00, 0x00,
  0x20, 0x00, 0x00, 0x00, 0x20, 0x00, 0x00, 0x00, 0x67, 0x00, 0x00, 0x00,
  0x24, 0x00, 0x00, 0x00, 0x03, 0x00, 0x00, 0x00, 0xff, 0xff, 0xff, 0xff,
  0xff, 0xff, 0xff, 0xff, 0x10, 0x00, 0x00, 0x00, 0x80, 0xce, 0xff, 0xff,
  0x04, 0x00, 0x00, 0x00, 0x61, 0x72, 0x67, 0x36, 0x00, 0x00, 0x00, 0x00,
  0x03, 0x00, 0x00, 0x00, 0x01, 0x00, 0x00, 0x00, 0x01, 0x00, 0x00, 0x00,
  0x10, 0x00, 0x00, 0x00, 0x1a, 0xd3, 0xff, 0xff, 0x00, 0x00, 0x00, 0x01,
  0x14, 0x00, 0x00, 0x00, 0x14, 0x00, 0x00, 0x00, 0x66, 0x00, 0x00, 0x00,
  0x00, 0x00, 0x00, 0x02, 0x14, 0x00, 0x00, 0x00, 0xbc, 0xce, 0xff, 0xff,
  0x04, 0x00, 0x00, 0x00, 0x61, 0x72, 0x67, 0x35, 0x00, 0x00, 0x00, 0x00,
  0x00, 0x00, 0x00, 0x00, 0x06, 0xd0, 0xff, 0xff, 0x00, 0x00, 0x00, 0x01,
  0x14, 0x00, 0x00, 0x00, 0x1c, 0x00, 0x00, 0x00, 0x1c, 0x00, 0x00, 0x00,
  0x65, 0x00, 0x00, 0x00, 0x20, 0x00, 0x00, 0x00, 0x02, 0x00, 0x00, 0x00,
  0xff, 0xff, 0xff, 0xff, 0x10, 0x00, 0x00, 0x00, 0xf8, 0xce, 0xff, 0xff,
  0x04, 0x00, 0x00, 0x00, 0x61, 0x72, 0x67, 0x34, 0x00, 0x00, 0x00, 0x00,
  0x02, 0x00, 0x00, 0x00, 0x01, 0x00, 0x00, 0x00, 0x10, 0x00, 0x00, 0x00,
  0x4a, 0xd0, 0xff, 0xff, 0x00, 0x00, 0x00, 0x01, 0x14, 0x00, 0x00, 0x00,
  0x1c, 0x00, 0x00, 0x00, 0x1c, 0x00, 0x00, 0x00, 0x64, 0x00, 0x00, 0x00,
  0x20, 0x00, 0x00, 0x00, 0x02, 0x00, 0x00, 0x00, 0xff, 0xff, 0xff, 0xff,
  0x10, 0x00, 0x00, 0x00, 0x3c, 0xcf, 0xff, 0xff, 0x04, 0x00, 0x00, 0x00,
  0x61, 0x72, 0x67, 0x33, 0x00, 0x00, 0x00, 0x00, 0x02, 0x00, 0x00, 0x00,
  0x01, 0x00, 0x00, 0x00, 0x10, 0x00, 0x00, 0x00, 0x04, 0xdb, 0xff, 0xff,
  0x1c, 0x00, 0x00, 0x00, 0x00, 0x00, 0x00, 0x01, 0x34, 0x00, 0x00, 0x00,
  0x34, 0x00, 0x00, 0x00, 0x63, 0x00, 0x00, 0x00, 0x00, 0x00, 0x00, 0x0e,
  0x34, 0x00, 0x00, 0x00, 0x01, 0x00, 0x00, 0x00, 0x04, 0x00, 0x00, 0x00,
  0xea, 0xda, 0xff, 0xff, 0x00, 0x00, 0x00, 0x01, 0x04, 0x00, 0x00, 0x00,
  0x02, 0x00, 0x00, 0x00, 0x00, 0x00, 0x00, 0x00, 0x10, 0x00, 0x00, 0x00,
  0x98, 0xcf, 0xff, 0xff, 0x04, 0x00, 0x00, 0x00, 0x61, 0x72, 0x67, 0x32,
  0x00, 0x00, 0x00, 0x00, 0x00, 0x00, 0x00, 0x00, 0x26, 0xd4, 0xff, 0xff,
  0x00, 0x00, 0x00, 0x01, 0x14, 0x00, 0x00, 0x00, 0x14, 0x00, 0x00, 0x00,
  0x62, 0x00, 0x00, 0x00, 0x00, 0x00, 0x00, 0x02, 0x14, 0x00, 0x00, 0x00,
  0xc8, 0xcf, 0xff, 0xff, 0x04, 0x00, 0x00, 0x00, 0x61, 0x72, 0x67, 0x31,
  0x00, 0x00, 0x00, 0x00, 0x00, 0x00, 0x00, 0x00, 0x56, 0xd4, 0xff, 0xff,
  0x00, 0x00, 0x00, 0x01, 0x14, 0x00, 0x00, 0x00, 0x14, 0x00, 0x00, 0x00,
  0x61, 0x00, 0x00, 0x00, 0x00, 0x00, 0x00, 0x02, 0x14, 0x00, 0x00, 0x00,
  0xf8, 0xcf, 0xff, 0xff, 0x04, 0x00, 0x00, 0x00, 0x61, 0x72, 0x67, 0x30,
  0x00, 0x00, 0x00, 0x00, 0x00, 0x00, 0x00, 0x00, 0x22, 0xec, 0xff, 0xff,
  0x14, 0x00, 0x00, 0x00, 0x20, 0x00, 0x00, 0x00, 0x48, 0x00, 0x00, 0x00,
  0x4c, 0x00, 0x00, 0x00, 0x68, 0x00, 0x00, 0x00, 0x0b, 0x00, 0x00, 0x00,
  0x77, 0x68, 0x69, 0x6c, 0x65, 0x31, 0x5f, 0x63, 0x6f, 0x6e, 0x64, 0x00,
  0x01, 0x00, 0x00, 0x00, 0x04, 0x00, 0x00, 0x00, 0x6e, 0xeb, 0xff, 0xff,
  0x0c, 0x00, 0x00, 0x00, 0x10, 0x00, 0x00, 0x00, 0x0a, 0x00, 0x00, 0x00,
  0x01, 0x00, 0x00, 0x00, 0x07, 0x00, 0x00, 0x00, 0x02, 0x00, 0x00, 0x00,
  0x01, 0x00, 0x00, 0x00, 0x05, 0x00, 0x00, 0x00, 0x01, 0x00, 0x00, 0x00,
  0x07, 0x00, 0x00, 0x00, 0x07, 0x00, 0x00, 0x00, 0x00, 0x00, 0x00, 0x00,
  0x01, 0x00, 0x00, 0x00, 0x02, 0x00, 0x00, 0x00, 0x03, 0x00, 0x00, 0x00,
  0x04, 0x00, 0x00, 0x00, 0x05, 0x00, 0x00, 0x00, 0x06, 0x00, 0x00, 0x00,
  0x08, 0x00, 0x00, 0x00, 0xdc, 0x01, 0x00, 0x00, 0xa8, 0x01, 0x00, 0x00,
  0x50, 0x01, 0x00, 0x00, 0x08, 0x01, 0x00, 0x00, 0xc0, 0x00, 0x00, 0x00,
  0x8c, 0x00, 0x00, 0x00, 0x3c, 0x00, 0x00, 0x00, 0x04, 0x00, 0x00, 0x00,
  0x26, 0xd5, 0xff, 0xff, 0x00, 0x00, 0x00, 0x01, 0x14, 0x00, 0x00, 0x00,
  0x14, 0x00, 0x00, 0x00, 0x60, 0x00, 0x00, 0x00, 0x00, 0x00, 0x00, 0x06,
  0x18, 0x00, 0x00, 0x00, 0xc8, 0xd0, 0xff, 0xff, 0x0b, 0x00, 0x00, 0x00,
  0x77, 0x68, 0x69, 0x6c, 0x65, 0x2f, 0x4c, 0x65, 0x73, 0x73, 0x31, 0x00,
  0x00, 0x00, 0x00, 0x00, 0x16, 0xd2, 0xff, 0xff, 0x00, 0x00, 0x00, 0x01,
  0x14, 0x00, 0x00, 0x00, 0x20, 0x00, 0x00, 0x00, 0x20, 0x00, 0x00, 0x00,
  0x5f, 0x00, 0x00, 0x00, 0x24, 0x00, 0x00, 0x00, 0x03, 0x00, 0x00, 0x00,
  0xff, 0xff, 0xff, 0xff, 0xff, 0xff, 0xff, 0xff, 0x10, 0x00, 0x00, 0x00,
  0x0c, 0xd1, 0xff, 0xff, 0x04, 0x00, 0x00, 0x00, 0x61, 0x72, 0x67, 0x36,
  0x00, 0x00, 0x00, 0x00, 0x03, 0x00, 0x00, 0x00, 0x01, 0x00, 0x00, 0x00,
  0x01, 0x00, 0x00, 0x00, 0x10, 0x00, 0x00, 0x00, 0xa6, 0xd5, 0xff, 0xff,
  0x00, 0x00, 0x00, 0x01, 0x14, 0x00, 0x00, 0x00, 0x14, 0x00, 0x00, 0x00,
  0x5e, 0x00, 0x00, 0x00, 0x00, 0x00, 0x00, 0x02, 0x14, 0x00, 0x00, 0x00,
  0x48, 0xd1, 0xff, 0xff, 0x04, 0x00, 0x00, 0x00, 0x61, 0x72, 0x67, 0x35,
  0x00, 0x00, 0x00, 0x00, 0x00, 0x00, 0x00, 0x00, 0x92, 0xd2, 0xff, 0xff,
  0x00, 0x00, 0x00, 0x01, 0x14, 0x00, 0x00, 0x00, 0x1c, 0x00, 0x00, 0x00,
  0x1c, 0x00, 0x00, 0x00, 0x5d, 0x00, 0x00, 0x00, 0x20, 0x00, 0x00, 0x00,
  0x02, 0x00, 0x00, 0x00, 0xff, 0xff, 0xff, 0xff, 0x10, 0x00, 0x00, 0x00,
  0x84, 0xd1, 0xff, 0xff, 0x04, 0x00, 0x00, 0x00, 0x61, 0x72, 0x67, 0x34,
  0x00, 0x00, 0x00, 0x00, 0x02, 0x00, 0x00, 0x00, 0x01, 0x00, 0x00, 0x00,
  0x10, 0x00, 0x00, 0x00, 0xd6, 0xd2, 0xff, 0xff, 0x00, 0x00, 0x00, 0x01,
  0x14, 0x00, 0x00, 0x00, 0x1c, 0x00, 0x00, 0x00, 0x1c, 0x00, 0x00, 0x00,
  0x5c, 0x00, 0x00, 0x00, 0x20, 0x00, 0x00, 0x00, 0x02, 0x00, 0x00, 0x00,
  0xff, 0xff, 0xff, 0xff, 0x10, 0x00, 0x00, 0x00, 0xc8, 0xd1, 0xff, 0xff,
  0x04, 0x00, 0x00, 0x00, 0x61, 0x72, 0x67, 0x33, 0x00, 0x00, 0x00, 0x00,
  0x02, 0x00, 0x00, 0x00, 0x01, 0x00, 0x00, 0x00, 0x10, 0x00, 0x00, 0x00,
  0x90, 0xdd, 0xff, 0xff, 0x1c, 0x00, 0x00, 0x00, 0x00, 0x00, 0x00, 0x01,
  0x34, 0x00, 0x00, 0x00, 0x34, 0x00, 0x00, 0x00, 0x5b, 0x00, 0x00, 0x00,
  0x00, 0x00, 0x00, 0x0e, 0x34, 0x00, 0x00, 0x00, 0x01, 0x00, 0x00, 0x00,
  0x04, 0x00, 0x00, 0x00, 0x76, 0xdd, 0xff, 0xff, 0x00, 0x00, 0x00, 0x01,
  0x04, 0x00, 0x00, 0x00, 0x02, 0x00, 0x00, 0x00, 0x00, 0x00, 0x00, 0x00,
  0x10, 0x00, 0x00, 0x00, 0x24, 0xd2, 0xff, 0xff, 0x04, 0x00, 0x00, 0x00,
  0x61, 0x72, 0x67, 0x32, 0x00, 0x00, 0x00, 0x00, 0x00, 0x00, 0x00, 0x00,
  0xb2, 0xd6, 0xff, 0xff, 0x00, 0x00, 0x00, 0x01, 0x14, 0x00, 0x00, 0x00,
  0x14, 0x00, 0x00, 0x00, 0x5a, 0x00, 0x00, 0x00, 0x00, 0x00, 0x00, 0x02,
  0x14, 0x00, 0x00, 0x00, 0x54, 0xd2, 0xff, 0xff, 0x04, 0x00, 0x00, 0x00,
  0x61, 0x72, 0x67, 0x31, 0x00, 0x00, 0x00, 0x00, 0x00, 0x00, 0x00, 0x00,
  0xe2, 0xd6, 0xff, 0xff, 0x00, 0x00, 0x00, 0x01, 0x14, 0x00, 0x00, 0x00,
  0x14, 0x00, 0x00, 0x00, 0x59, 0x00, 0x00, 0x00, 0x00, 0x00, 0x00, 0x02,
  0x14, 0x00, 0x00, 0x00, 0x84, 0xd2, 0xff, 0xff, 0x04, 0x00, 0x00, 0x00,
  0x61, 0x72, 0x67, 0x30, 0x00, 0x00, 0x00, 0x00, 0x00, 0x00, 0x00, 0x00,
  0xae, 0xee, 0xff, 0xff, 0x14, 0x00, 0x00, 0x00, 0x20, 0x00, 0x00, 0x00,
  0x50, 0x04, 0x00, 0x00, 0x68, 0x04, 0x00, 0x00, 0x80, 0x04, 0x00, 0x00,
  0x0a, 0x00, 0x00, 0x00, 0x77, 0x68, 0x69, 0x6c, 0x65, 0x5f, 0x62, 0x6f,
  0x64, 0x79, 0x00, 0x00, 0x12, 0x00, 0x00, 0x00, 0x00, 0x04, 0x00, 0x00,
  0xb8, 0x03, 0x00, 0x00, 0x84, 0x03, 0x00, 0x00, 0x4c, 0x03, 0x00, 0x00,
  0x18, 0x03, 0x00, 0x00, 0xe4, 0x02, 0x00, 0x00, 0xa0, 0x02, 0x00, 0x00,
  0x7c, 0x02, 0x00, 0x00, 0x58, 0x02, 0x00, 0x00, 0x24, 0x02, 0x00, 0x00,
  0x00, 0x02, 0x00, 0x00, 0xdc, 0x01, 0x00, 0x00, 0xa8, 0x01, 0x00, 0x00,
  0x74, 0x01, 0x00, 0x00, 0x50, 0x01, 0x00, 0x00, 0x1c, 0x01, 0x00, 0x00,
  0x38, 0x00, 0x00, 0x00, 0x04, 0x00, 0x00, 0x00, 0x22, 0xeb, 0xff, 0xff,
  0x14, 0x00, 0x00, 0x00, 0x00, 0x00, 0x00, 0x0b, 0x10, 0x00, 0x00, 0x00,
  0x14, 0x00, 0x00, 0x00, 0x08, 0x00, 0x00, 0x00, 0x24, 0xd3, 0xff, 0xff,
  0x01, 0x00, 0x00, 0x00, 0x1e, 0x00, 0x00, 0x00, 0x02, 0x00, 0x00, 0x00,
  0x00, 0x00, 0x00, 0x00, 0x07, 0x00, 0x00, 0x00, 0xe0, 0xea, 0xff, 0xff,
  0x10, 0x00, 0x00, 0x00, 0xc0, 0x00, 0x00, 0x00, 0xc4, 0x00, 0x00, 0x00,
  0x10, 0x00, 0x00, 0x00, 0xb0, 0x00, 0x00, 0x00, 0x11, 0x54, 0x65, 0x6e,
  0x73, 0x6f, 0x72, 0x4c, 0x69, 0x73, 0x74, 0x53, 0x65, 0x74, 0x49, 0x74,
  0x65, 0x6d, 0x00, 0x93, 0x12, 0x11, 0x54, 0x65, 0x6e, 0x73, 0x6f, 0x72,
  0x4c, 0x69, 0x73, 0x74, 0x53, 0x65, 0x74, 0x49, 0x74, 0x65, 0x6d, 0x1a,
  0x00, 0x1a, 0x00, 0x1a, 0x00, 0x2a, 0x13, 0x0a, 0x0d, 0x65, 0x6c, 0x65,
  0x6d, 0x65, 0x6e, 0x74, 0x5f, 0x64, 0x74, 0x79, 0x70, 0x65, 0x12, 0x02,
  0x30, 0x01, 0x2a, 0x23, 0x0a, 0x1d, 0x72, 0x65, 0x73, 0x69, 0x7a, 0x65,
  0x5f, 0x69, 0x66, 0x5f, 0x69, 0x6e, 0x64, 0x65, 0x78, 0x5f, 0x6f, 0x75,
  0x74, 0x5f, 0x6f, 0x66, 0x5f, 0x62, 0x6f, 0x75, 0x6e, 0x64, 0x73, 0x12,
  0x02, 0x28, 0x00, 0x32, 0x3e, 0x0a, 0x2a, 0x77, 0x68, 0x69, 0x6c, 0x65,
  0x2f, 0x54, 0x65, 0x6e, 0x73, 0x6f, 0x72, 0x41, 0x72, 0x72, 0x61, 0x79,
  0x56, 0x32, 0x57, 0x72, 0x69, 0x74, 0x65, 0x2f, 0x54, 0x65, 0x6e, 0x73,
  0x6f, 0x72, 0x4c, 0x69, 0x73, 0x74, 0x53, 0x65, 0x74, 0x49, 0x74, 0x65,
  0x6d, 0x12, 0x10, 0x77, 0x68, 0x69, 0x6c, 0x65, 0x5f, 0x62, 0x6f, 0x64,
  0x79, 0x5f, 0x33, 0x31, 0x31, 0x30, 0x38, 0x00, 0x02, 0xa8, 0x96, 0x14,
  0x14, 0x04, 0x28, 0x01, 0x01, 0x00, 0x00, 0x00, 0x1d, 0x00, 0x00, 0x00,
  0x03, 0x00, 0x00, 0x00, 0x02, 0x00, 0x00, 0x00, 0x01, 0x00, 0x00, 0x00,
  0x1c, 0x00, 0x00, 0x00, 0x32, 0xec, 0xff, 0xff, 0x14, 0x00, 0x00, 0x00,
  0x00, 0x00, 0x00, 0x15, 0x10, 0x00, 0x00, 0x00, 0x14, 0x00, 0x00, 0x00,
  0x0e, 0x00, 0x00, 0x00, 0x34, 0xd4, 0xff, 0xff, 0x01, 0x00, 0x00, 0x00,
  0x1c, 0x00, 0x00, 0x00, 0x02, 0x00, 0x00, 0x00, 0x17, 0x00, 0x00, 0x00,
  0x1b, 0x00, 0x00, 0x00, 0x7e, 0xef, 0xff, 0xff, 0x0c, 0x00, 0x00, 0x00,
  0x10, 0x00, 0x00, 0x00, 0x0f, 0x00, 0x00, 0x00, 0x01, 0x00, 0x00, 0x00,
  0x1b, 0x00, 0x00, 0x00, 0x01, 0x00, 0x00, 0x00, 0x1a, 0x00, 0x00, 0x00,
  0x82, 0xec, 0xff, 0xff, 0x14, 0x00, 0x00, 0x00, 0x00, 0x00, 0x00, 0x0b,
  0x10, 0x00, 0x00, 0x00, 0x14, 0x00, 0x00, 0x00, 0x08, 0x00, 0x00, 0x00,
  0x84, 0xd4, 0xff, 0xff, 0x01, 0x00, 0x00, 0x00, 0x1a, 0x00, 0x00, 0x00,
  0x02, 0x00, 0x00, 0x00, 0x16, 0x00, 0x00, 0x00, 0x19, 0x00, 0x00, 0x00,
  0xb2, 0xec, 0xff, 0xff, 0x14, 0x00, 0x00, 0x00, 0x00, 0x00, 0x00, 0x15,
  0x10, 0x00, 0x00, 0x00, 0x14, 0x00, 0x00, 0x00, 0x0e, 0x00, 0x00, 0x00,
  0xb4, 0xd4, 0xff, 0xff, 0x01, 0x00, 0x00, 0x00, 0x19, 0x00, 0x00, 0x00,
  0x02, 0x00, 0x00, 0x00, 0x14, 0x00, 0x00, 0x00, 0x18, 0x00, 0x00, 0x00,
  0xfe, 0xef, 0xff, 0xff, 0x0c, 0x00, 0x00, 0x00, 0x10, 0x00, 0x00, 0x00,
  0x0f, 0x00, 0x00, 0x00, 0x01, 0x00, 0x00, 0x00, 0x18, 0x00, 0x00, 0x00,
  0x01, 0x00, 0x00, 0x00, 0x12, 0x00, 0x00, 0x00, 0x1e, 0xf0, 0xff, 0xff,
  0x0c, 0x00, 0x00, 0x00, 0x10, 0x00, 0x00, 0x00, 0x0d, 0x00, 0x00, 0x00,
  0x01, 0x00, 0x00, 0x00, 0x17, 0x00, 0x00, 0x00, 0x01, 0x00, 0x00, 0x00,
  0x13, 0x00, 0x00, 0x00, 0x22, 0xed, 0xff, 0xff, 0x14, 0x00, 0x00, 0x00,
  0x00, 0x00, 0x00, 0x15, 0x10, 0x00, 0x00, 0x00, 0x14, 0x00, 0x00, 0x00,
  0x0e, 0x00, 0x00, 0x00, 0x24, 0xd5, 0xff, 0xff, 0x01, 0x00, 0x00, 0x00,
  0x16, 0x00, 0x00, 0x00, 0x02, 0x00, 0x00, 0x00, 0x15, 0x00, 0x00, 0x00,
  0x04, 0x00, 0x00, 0x00, 0x6e, 0xf0, 0xff, 0xff, 0x0c, 0x00, 0x00, 0x00,
  0x10, 0x00, 0x00, 0x00, 0x0d, 0x00, 0x00, 0x00, 0x01, 0x00, 0x00, 0x00,
  0x15, 0x00, 0x00, 0x00, 0x01, 0x00, 0x00, 0x00, 0x11, 0x00, 0x00, 0x00,
  0x8e, 0xf0, 0xff, 0xff, 0x0c, 0x00, 0x00, 0x00, 0x10, 0x00, 0x00, 0x00,
  0x0d, 0x00, 0x00, 0x00, 0x01, 0x00, 0x00, 0x00, 0x14, 0x00, 0x00, 0x00,
  0x01, 0x00, 0x00, 0x00, 0x10, 0x00, 0x00, 0x00, 0x92, 0xed, 0xff, 0xff,
  0x14, 0x00, 0x00, 0x00, 0x00, 0x00, 0x00, 0x23, 0x14, 0x00, 0x00, 0x00,
  0x24, 0x00, 0x00, 0x00, 0x0c, 0x00, 0x00, 0x00, 0x1e, 0xf1, 0xff, 0xff,
  0x04, 0x00, 0x00, 0x00, 0x04, 0x00, 0x00, 0x00, 0x10, 0x00, 0x00, 0x00,
  0x11, 0x00, 0x00, 0x00, 0x12, 0x00, 0x00, 0x00, 0x13, 0x00, 0x00, 0x00,
  0x02, 0x00, 0x00, 0x00, 0x07, 0x00, 0x00, 0x00, 0x0f, 0x00, 0x00, 0x00,
  0xd2, 0xed, 0xff, 0xff, 0x14, 0x00, 0x00, 0x00, 0x00, 0x00, 0x00, 0x0b,
  0x10, 0x00, 0x00, 0x00, 0x14, 0x00, 0x00, 0x00, 0x08, 0x00, 0x00, 0x00,
  0xd4, 0xd5, 0xff, 0xff, 0x01, 0x00, 0x00, 0x00, 0x0f, 0x00, 0x00, 0x00,
  0x02, 0x00, 0x00, 0x00, 0x0e, 0x00, 0x00, 0x00, 0x06, 0x00, 0x00, 0x00,
  0x02, 0xee, 0xff, 0xff, 0x14, 0x00, 0x00, 0x00, 0x00, 0x00, 0x00, 0x0b,
  0x10, 0x00, 0x00, 0x00, 0x14, 0x00, 0x00, 0x00, 0x08, 0x00, 0x00, 0x00,
  0x04, 0xd6, 0xff, 0xff, 0x01, 0x00, 0x00, 0x00, 0x0e, 0x00, 0x00, 0x00,
  0x02, 0x00, 0x00, 0x00, 0x0d, 0x00, 0x00, 0x00, 0x0b, 0x00, 0x00, 0x00,
  0x32, 0xee, 0xff, 0xff, 0x14, 0x00, 0x00, 0x00, 0x00, 0x00, 0x00, 0x08,
  0x10, 0x00, 0x00, 0x00, 0x14, 0x00, 0x00, 0x00, 0x06, 0x00, 0x00, 0x00,
  0x34, 0xd6, 0xff, 0xff, 0x01, 0x00, 0x00, 0x00, 0x0d, 0x00, 0x00, 0x00,
  0x03, 0x00, 0x00, 0x00, 0x0c, 0x00, 0x00, 0x00, 0x08, 0x00, 0x00, 0x00,
  0xff, 0xff, 0xff, 0xff, 0x66, 0xee, 0xff, 0xff, 0x14, 0x00, 0x00, 0x00,
  0x00, 0x00, 0x00, 0x17, 0x10, 0x00, 0x00, 0x00, 0x14, 0x00, 0x00, 0x00,
  0x0b, 0x00, 0x00, 0x00, 0x68, 0xd6, 0xff, 0xff, 0x01, 0x00, 0x00, 0x00,
  0x0c, 0x00, 0x00, 0x00, 0x02, 0x00, 0x00, 0x00, 0x05, 0x00, 0x00, 0x00,
  0x01, 0x00, 0x00, 0x00, 0x96, 0xee, 0xff, 0xff, 0x20, 0x00, 0x00, 0x00,
  0x00, 0x00, 0x00, 0x08, 0x20, 0x00, 0x00, 0x00, 0x24, 0x00, 0x00, 0x00,
  0x06, 0x00, 0x00, 0x00, 0x0c, 0x00, 0x08, 0x00, 0x00, 0x00, 0x00, 0x00,
  0x00, 0x00, 0x07, 0x00, 0x0c, 0x00, 0x00, 0x00, 0x00, 0x00, 0x00, 0x01,
  0x01, 0x00, 0x00, 0x00, 0x0b, 0x00, 0x00, 0x00, 0x03, 0x00, 0x00, 0x00,
  0x03, 0x00, 0x00, 0x00, 0x09, 0x00, 0x00, 0x00, 0xff, 0xff, 0xff, 0xff,
  0xda, 0xee, 0xff, 0xff, 0x14, 0x00, 0x00, 0x00, 0x00, 0x00, 0x00, 0x0b,
  0x10, 0x00, 0x00, 0x00, 0x14, 0x00, 0x00, 0x00, 0x08, 0x00, 0x00, 0x00,
  0xdc, 0xd6, 0xff, 0xff, 0x01, 0x00, 0x00, 0x00, 0x0a, 0x00, 0x00, 0x00,
  0x02, 0x00, 0x00, 0x00, 0x01, 0x00, 0x00, 0x00, 0x07, 0x00, 0x00, 0x00,
  0x06, 0x00, 0x00, 0x00, 0x1e, 0x00, 0x00, 0x00, 0x0a, 0x00, 0x00, 0x00,
  0x1d, 0x00, 0x00, 0x00, 0x1c, 0x00, 0x00, 0x00, 0x1a, 0x00, 0x00, 0x00,
  0x05, 0x00, 0x00, 0x00, 0x06, 0x00, 0x00, 0x00, 0x00, 0x00, 0x00, 0x00,
  0x01, 0x00, 0x00, 0x00, 0x02, 0x00, 0x00, 0x00, 0x03, 0x00, 0x00, 0x00,
  0x04, 0x00, 0x00, 0x00, 0x05, 0x00, 0x00, 0x00, 0x1f, 0x00, 0x00, 0x00,
  0xac, 0x09, 0x00, 0x00, 0x78, 0x09, 0x00, 0x00, 0x20, 0x09, 0x00, 0x00,
  0xd8, 0x08, 0x00, 0x00, 0x90, 0x08, 0x00, 0x00, 0x40, 0x08, 0x00, 0x00,
  0xc4, 0x07, 0x00, 0x00, 0x3c, 0x07, 0x00, 0x00, 0xfc, 0x06, 0x00, 0x00,
  0x90, 0x06, 0x00, 0x00, 0x58, 0x06, 0x00, 0x00, 0x08, 0x06, 0x00, 0x00,
  0x9c, 0x05, 0x00, 0x00, 0x4c, 0x05, 0x00, 0x00, 0x00, 0x05, 0x00, 0x00,
  0xb0, 0x04, 0x00, 0x00, 0x64, 0x04, 0x00, 0x00, 0x14, 0x04, 0x00, 0x00,
  0xc4, 0x03, 0x00, 0x00, 0x74, 0x03, 0x00, 0x00, 0x24, 0x03, 0x00, 0x00,
  0xd4, 0x02, 0x00, 0x00, 0x88, 0x02, 0x00, 0x00, 0x38, 0x02, 0x00, 0x00,
  0xec, 0x01, 0x00, 0x00, 0xa0, 0x01, 0x00, 0x00, 0x54, 0x01, 0x00, 0x00,
  0x04, 0x01, 0x00, 0x00, 0xb8, 0x00, 0x00, 0x00, 0x3c, 0x00, 0x00, 0x00,
  0x04, 0x00, 0x00, 0x00, 0x26, 0xdc, 0xff, 0xff, 0x00, 0x00, 0x00, 0x01,
  0x14, 0x00, 0x00, 0x00, 0x14, 0x00, 0x00, 0x00, 0x58, 0x00, 0x00, 0x00,
  0x00, 0x00, 0x00, 0x02, 0x18, 0x00, 0x00, 0x00, 0xc8, 0xd7, 0xff, 0xff,
  0x0b, 0x00, 0x00, 0x00, 0x77, 0x68, 0x69, 0x6c, 0x65, 0x2f, 0x61, 0x64,
  0x64, 0x5f, 0x33, 0x00, 0x00, 0x00, 0x00, 0x00, 0x8c, 0xe3, 0xff, 0xff,
  0x1c, 0x00, 0x00, 0x00, 0x00, 0x00, 0x00, 0x01, 0x34, 0x00, 0x00, 0x00,
  0x34, 0x00, 0x00, 0x00, 0x57, 0x00, 0x00, 0x00, 0x00, 0x00, 0x00, 0x0e,
  0x58, 0x00, 0x00, 0x00, 0x01, 0x00, 0x00, 0x00, 0x04, 0x00, 0x00, 0x00,
  0x72, 0xe3, 0xff, 0xff, 0x00, 0x00, 0x00, 0x01, 0x04, 0x00, 0x00, 0x00,
  0x02, 0x00, 0x00, 0x00, 0x00, 0x00, 0x00, 0x00, 0x10, 0x00, 0x00, 0x00,
  0x20, 0xd8, 0xff, 0xff, 0x2a, 0x00, 0x00, 0x00, 0x77, 0x68, 0x69, 0x6c,
  0x65, 0x2f, 0x54, 0x65, 0x6e, 0x73, 0x6f, 0x72, 0x41, 0x72, 0x72, 0x61,
  0x79, 0x56, 0x32, 0x57, 0x72, 0x69, 0x74, 0x65, 0x2f, 0x54, 0x65, 0x6e,
  0x73, 0x6f, 0x72, 0x4c, 0x69, 0x73, 0x74, 0x53, 0x65, 0x74, 0x49, 0x74,
  0x65, 0x6d, 0x00, 0x00, 0x00, 0x00, 0x00, 0x00, 0x8e, 0xd9, 0xff, 0xff,
  0x00, 0x00, 0x00, 0x01, 0x14, 0x00, 0x00, 0x00, 0x1c, 0x00, 0x00, 0x00,
  0x1c, 0x00, 0x00, 0x00, 0x56, 0x00, 0x00, 0x00, 0x24, 0x00, 0x00, 0x00,
  0x02, 0x00, 0x00, 0x00, 0xff, 0xff, 0xff, 0xff, 0x10, 0x00, 0x00, 0x00,
